{
  "version": "1.0",
  "truncation": null,
  "padding": null,
  "added_tokens": [
    {
      "id": 0,
      "content": "<unk>",
      "single_word": false,
      "lstrip": false,
      "rstrip": false,
      "normalized": false,
      "special": true
    },
    {
      "id": 1,
      "content": "<s>",
      "single_word": false,
      "lstrip": false,
      "rstrip": false,
      "normalized": false,
      "special": true
    },
    {
      "id": 2,
      "content": "</s>",
      "single_word": false,
      "lstrip": false,
      "rstrip": false,
      "normalized": false,
      "special": true
    },
    {
      "id": 3,
      "content": "<|system|>",
      "single_word": false,
      "lstrip": false,
      "rstrip": false,
      "normalized": false,
      "special": true
    },
    {
      "id": 4,
      "content": "<|user|>",
      "single_word": false,
      "lstrip": false,
      "rstrip": false,
      "normalized": false,
      "special": true
    },
    {
      "id": 5,
      "content": "<|assistant|>",
      "single_word": false,
      "lstrip": false,
      "rstrip": false,
      "normalized": false,
      "special": true
    }
  ],
  "normalizer": null,
  "pre_tokenizer": {
    "type": "ByteLevel",
    "add_prefix_space": false,
    "trim_offsets": true,
    "use_regex": true
  },
  "post_processor": null,
  "decoder": null,
  "model": {
    "type": "BPE",
    "dropout": null,
    "unk_token": "<unk>",
    "continuing_subword_prefix": null,
    "end_of_word_suffix": null,
    "fuse_unk": false,
    "byte_fallback": false,
    "ignore_merges": false,
    "vocab": {
      "<unk>": 0,
      "<s>": 1,
      "</s>": 2,
      "<|system|>": 3,
      "<|user|>": 4,
      "<|assistant|>": 5,
      "!": 6,
      "\"": 7,
      "#": 8,
      "$": 9,
      "%": 10,
      "&": 11,
      "'": 12,
      "(": 13,
      ")": 14,
      "*": 15,
      "+": 16,
      ",": 17,
      "-": 18,
      ".": 19,
      "/": 20,
      "0": 21,
      "1": 22,
      "2": 23,
      "3": 24,
      "4": 25,
      "5": 26,
      "6": 27,
      "7": 28,
      "8": 29,
      "9": 30,
      ":": 31,
      ";": 32,
      "<": 33,
      "=": 34,
      ">": 35,
      "?": 36,
      "@": 37,
      "A": 38,
      "B": 39,
      "C": 40,
      "D": 41,
      "E": 42,
      "F": 43,
      "G": 44,
      "H": 45,
      "I": 46,
      "J": 47,
      "K": 48,
      "L": 49,
      "M": 50,
      "N": 51,
      "O": 52,
      "P": 53,
      "Q": 54,
      "R": 55,
      "S": 56,
      "T": 57,
      "U": 58,
      "V": 59,
      "W": 60,
      "X": 61,
      "Y": 62,
      "Z": 63,
      "[": 64,
      "\\": 65,
      "]": 66,
      "^": 67,
      "_": 68,
      "`": 69,
      "a": 70,
      "b": 71,
      "c": 72,
      "d": 73,
      "e": 74,
      "f": 75,
      "g": 76,
      "h": 77,
      "i": 78,
      "j": 79,
      "k": 80,
      "l": 81,
      "m": 82,
      "n": 83,
      "o": 84,
      "p": 85,
      "q": 86,
      "r": 87,
      "s": 88,
      "t": 89,
      "u": 90,
      "v": 91,
      "w": 92,
      "x": 93,
      "y": 94,
      "z": 95,
      "{": 96,
      "|": 97,
      "}": 98,
      "~": 99,
      "¡": 100,
      "¢": 101,
      "£": 102,
      "¤": 103,
      "¥": 104,
      "¦": 105,
      "§": 106,
      "¨": 107,
      "©": 108,
      "ª": 109,
      "«": 110,
      "¬": 111,
      "®": 112,
      "¯": 113,
      "°": 114,
      "±": 115,
      "²": 116,
      "³": 117,
      "´": 118,
      "µ": 119,
      "¶": 120,
      "·": 121,
      "¸": 122,
      "¹": 123,
      "º": 124,
      "»": 125,
      "¼": 126,
      "½": 127,
      "¾": 128,
      "¿": 129,
      "À": 130,
      "Á": 131,
      "Â": 132,
      "Ã": 133,
      "Ä": 134,
      "Å": 135,
      "Æ": 136,
      "Ç": 137,
      "È": 138,
      "É": 139,
      "Ê": 140,
      "Ë": 141,
      "Ì": 142,
      "Í": 143,
      "Î": 144,
      "Ï": 145,
      "Ð": 146,
      "Ñ": 147,
      "Ò": 148,
      "Ó": 149,
      "Ô": 150,
      "Õ": 151,
      "Ö": 152,
      "×": 153,
      "Ø": 154,
      "Ù": 155,
      "Ú": 156,
      "Û": 157,
      "Ü": 158,
      "Ý": 159,
      "Þ": 160,
      "ß": 161,
      "à": 162,
      "á": 163,
      "â": 164,
      "ã": 165,
      "ä": 166,
      "å": 167,
      "æ": 168,
      "ç": 169,
      "è": 170,
      "é": 171,
      "ê": 172,
      "ë": 173,
      "ì": 174,
      "í": 175,
      "î": 176,
      "ï": 177,
      "ð": 178,
      "ñ": 179,
      "ò": 180,
      "ó": 181,
      "ô": 182,
      "õ": 183,
      "ö": 184,
      "÷": 185,
      "ø": 186,
      "ù": 187,
      "ú": 188,
      "û": 189,
      "ü": 190,
      "ý": 191,
      "þ": 192,
      "ÿ": 193,
      "Ā": 194,
      "ā": 195,
      "Ă": 196,
      "ă": 197,
      "Ą": 198,
      "ą": 199,
      "Ć": 200,
      "ć": 201,
      "Ĉ": 202,
      "ĉ": 203,
      "Ċ": 204,
      "ċ": 205,
      "Č": 206,
      "č": 207,
      "Ď": 208,
      "ď": 209,
      "Đ": 210,
      "đ": 211,
      "Ē": 212,
      "ē": 213,
      "Ĕ": 214,
      "ĕ": 215,
      "Ė": 216,
      "ė": 217,
      "Ę": 218,
      "ę": 219,
      "Ě": 220,
      "ě": 221,
      "Ĝ": 222,
      "ĝ": 223,
      "Ğ": 224,
      "ğ": 225,
      "Ġ": 226,
      "ġ": 227,
      "Ģ": 228,
      "ģ": 229,
      "Ĥ": 230,
      "ĥ": 231,
      "Ħ": 232,
      "ħ": 233,
      "Ĩ": 234,
      "ĩ": 235,
      "Ī": 236,
      "ī": 237,
      "Ĭ": 238,
      "ĭ": 239,
      "Į": 240,
      "į": 241,
      "İ": 242,
      "ı": 243,
      "Ĳ": 244,
      "ĳ": 245,
      "Ĵ": 246,
      "ĵ": 247,
      "Ķ": 248,
      "ķ": 249,
      "ĸ": 250,
      "Ĺ": 251,
      "ĺ": 252,
      "Ļ": 253,
      "ļ": 254,
      "Ľ": 255,
      "ľ": 256,
      "Ŀ": 257,
      "ŀ": 258,
      "Ł": 259,
      "ł": 260,
      "Ń": 261,
      "Ġt": 262,
      "Ġa": 263,
      "he": 264,
      "in": 265,
      "re": 266,
      "Ġthe": 267,
      "on": 268,
      "er": 269,
      "Ġo": 270,
      "at": 271,
      "Ġs": 272,
      "en": 273,
      "Ġc": 274,
      "es": 275,
      "Ġw": 276,
      "is": 277,
      "nd": 278,
      "or": 279,
      "it": 280,
      "Ġp": 281,
      "al": 282,
      "ed": 283,
      "Ġof": 284,
      "Ġb": 285,
      "an": 286,
      "Ġf": 287,
      "Ġin": 288,
      "ar": 289,
      "ing": 290,
      "ou": 291,
      "Ġm": 292,
      "Ġand": 293,
      "ic": 294,
      "Ġto": 295,
      "ion": 296,
      "Ġd": 297,
      "ro": 298,
      "le": 299,
      "as": 300,
      "Ġh": 301,
      "ent": 302,
      "Ġth": 303,
      "ct": 304,
      "il": 305,
      "Ġe": 306,
      "Ġre": 307,
      "om": 308,
      "ve": 309,
      "Ġn": 310,
      "st": 311,
      "Ġl": 312,
      "ly": 313,
      "Ġbe": 314,
      "ĠT": 315,
      "Ġis": 316,
      "ol": 317,
      "se": 318,
      "ation": 319,
      "Ġg": 320,
      "id": 321,
      "im": 322,
      "ce": 323,
      "ĠA": 324,
      "ut": 325,
      "et": 326,
      "ra": 327,
      "ot": 328,
      "ur": 329,
      "ch": 330,
      "ĠS": 331,
      "Ġfor": 332,
      "ow": 333,
      "ig": 334,
      "ĠC": 335,
      "Ġon": 336,
      "Ġthat": 337,
      "Ġu": 338,
      "ver": 339,
      "âĢ": 340,
      "Ġst": 341,
      "ĠI": 342,
      "ir": 343,
      "am": 344,
      "ay": 345,
      "ul": 346,
      "el": 347,
      "ad": 348,
      "her": 349,
      "Ġas": 350,
      "ith": 351,
      "Ġy": 352,
      "Ġpro": 353,
      "Ġcon": 354,
      "ĠM": 355,
      "Ġan": 356,
      "Ġare": 357,
      "Ġ(": 358,
      "Ġ1": 359,
      "Ġwith": 360,
      "Ġor": 361,
      "Ġwh": 362,
      "ter": 363,
      "if": 364,
      "ĠP": 365,
      "od": 366,
      "ĠThe": 367,
      "Ġit": 368,
      "Ġal": 369,
      "ment": 370,
      "th": 371,
      "ist": 372,
      "ge": 373,
      "op": 374,
      "ate": 375,
      "ĠB": 376,
      "ers": 377,
      "Ġde": 378,
      "ies": 379,
      "ab": 380,
      "Ġhe": 381,
      "ill": 382,
      "Ġsu": 383,
      "res": 384,
      "Ġex": 385,
      "ĠH": 386,
      "ere": 387,
      "Ġyou": 388,
      "us": 389,
      "ect": 390,
      "est": 391,
      "ess": 392,
      "Ġby": 393,
      "ore": 394,
      "rom": 395,
      "Ġcom": 396,
      "os": 397,
      "ity": 398,
      "ld": 399,
      "and": 400,
      "ac": 401,
      "um": 402,
      "ri": 403,
      "Ġat": 404,
      "ĠW": 405,
      "ĠD": 406,
      "em": 407,
      "Ġv": 408,
      "ĠR": 409,
      "Ġwas": 410,
      "ive": 411,
      "ain": 412,
      "nt": 413,
      "ĠE": 414,
      "qu": 415,
      "ant": 416,
      "igh": 417,
      "Ġfrom": 418,
      "pp": 419,
      "ke": 420,
      "Ġha": 421,
      "ud": 422,
      "ĠF": 423,
      "Ġ2": 424,
      "oc": 425,
      "ĠN": 426,
      "ort": 427,
      "Ġch": 428,
      "iv": 429,
      "Ġse": 430,
      "Ġne": 431,
      "Ġr": 432,
      "ĠG": 433,
      "Ġnot": 434,
      "00": 435,
      "ical": 436,
      "art": 437,
      "ure": 438,
      "ĠL": 439,
      "Ġcan": 440,
      "un": 441,
      "Ġhave": 442,
      "ial": 443,
      "Ġle": 444,
      "og": 445,
      "Ġsp": 446,
      "Ġsh": 447,
      "all": 448,
      "ich": 449,
      "ight": 450,
      "Ġen": 451,
      "'s": 452,
      "ther": 453,
      "pt": 454,
      "Ġthis": 455,
      "Ġab": 456,
      "rou": 457,
      "âĢĻ": 458,
      "The": 459,
      "ould": 460,
      "our": 461,
      "ost": 462,
      "gh": 463,
      "ated": 464,
      "ions": 465,
      "ear": 466,
      "ome": 467,
      "ĠJ": 468,
      "ine": 469,
      "Ġwor": 470,
      "ag": 471,
      "ĠO": 472,
      "du": 473,
      "ard": 474,
      "ĠU": 475,
      "out": 476,
      "Ġwe": 477,
      "ell": 478,
      "ff": 479,
      "ast": 480,
      "per": 481,
      "Ġim": 482,
      "ec": 483,
      "Ġpl": 484,
      "Ġus": 485,
      "ans": 486,
      "pl": 487,
      "Ġtheir": 488,
      "Ġint": 489,
      "ew": 490,
      "Ġwhich": 491,
      "act": 492,
      "Ġ\"": 493,
      "ust": 494,
      "ĠâĢ": 495,
      "ĠIn": 496,
      "age": 497,
      "ous": 498,
      "are": 499,
      "ak": 500,
      "Ġk": 501,
      "ia": 502,
      "Ġwhe": 503,
      "iz": 504,
      "ide": 505,
      "ib": 506,
      "Ġinc": 507,
      "Ġcont": 508,
      "ary": 509,
      "ood": 510,
      "Ġdis": 511,
      "Ġthey": 512,
      "Ġad": 513,
      "ap": 514,
      "cc": 515,
      "Ġall": 516,
      "ult": 517,
      "ong": 518,
      "end": 519,
      "Ġ19": 520,
      "ru": 521,
      "orm": 522,
      "ations": 523,
      "Ġres": 524,
      "vel": 525,
      "Ġmore": 526,
      "Ġhas": 527,
      "Ġwill": 528,
      "Ġcomp": 529,
      "ip": 530,
      "Ġwere": 531,
      "ater": 532,
      "Ġdo": 533,
      "ild": 534,
      "Ġother": 535,
      "ire": 536,
      "ence": 537,
      "so": 538,
      "Ġbut": 539,
      "Ġper": 540,
      "ally": 541,
      "Ġcl": 542,
      "able": 543,
      "Ġman": 544,
      "ks": 545,
      "ry": 546,
      "ĠTh": 547,
      "Ġone": 548,
      "ose": 549,
      "ind": 550,
      "ĠSt": 551,
      "Ġyour": 552,
      "ance": 553,
      "ep": 554,
      "ber": 555,
      "reat": 556,
      "ress": 557,
      "au": 558,
      "ase": 559,
      "Ġhis": 560,
      "ign": 561,
      "Ġme": 562,
      "ents": 563,
      "ass": 564,
      "ach": 565,
      "av": 566,
      "Ġar": 567,
      "Ġun": 568,
      "ice": 569,
      "ord": 570,
      "ction": 571,
      "Ġalso": 572,
      "ish": 573,
      "Ġwho": 574,
      "Ġpre": 575,
      "ory": 576,
      "ition": 577,
      "Ġte": 578,
      ").": 579,
      "ub": 580,
      "Ġimp": 581,
      "ace": 582,
      "ame": 583,
      "Ġpart": 584,
      "Ġj": 585,
      "Ġso": 586,
      "mer": 587,
      "ount": 588,
      "Ġapp": 589,
      "Ġinf": 590,
      "Ġev": 591,
      "one": 592,
      "ake": 593,
      "Ġout": 594,
      "ens": 595,
      "Ġabout": 596,
      "ci": 597,
      "Ġmay": 598,
      "âĢĿ": 599,
      "ok": 600,
      "very": 601,
      "ime": 602,
      "ĠK": 603,
      "Ġstud": 604,
      "ite": 605,
      "ack": 606,
      "ound": 607,
      "ors": 608,
      "ree": 609,
      "Ġthan": 610,
      "Ġpe": 611,
      "olog": 612,
      "ĠCh": 613,
      "ces": 614,
      "ric": 615,
      "Ġsy": 616,
      "Ġyear": 617,
      "ian": 618,
      "ates": 619,
      "ie": 620,
      "ang": 621,
      "Ġbeen": 622,
      "ue": 623,
      "low": 624,
      "Ġup": 625,
      "erv": 626,
      "Ġbec": 627,
      "Ġrec": 628,
      "Ġcomm": 629,
      "now": 630,
      "ays": 631,
      "vers": 632,
      "ail": 633,
      "Ġthem": 634,
      "Ġits": 635,
      "Ġag": 636,
      "Ġsome": 637,
      "ile": 638,
      "Ġhad": 639,
      "ike": 640,
      "ph": 641,
      "ople": 642,
      "Ġqu": 643,
      "ough": 644,
      "ĠIt": 645,
      "nder": 646,
      "ings": 647,
      "Ġthere": 648,
      "ĠV": 649,
      "ons": 650,
      "lud": 651,
      "ĠâĢľ": 652,
      "Ġra": 653,
      "Ġinto": 654,
      "Ġgo": 655,
      "Ġwhen": 656,
      "ren": 657,
      "iff": 658,
      "Ġsa": 659,
      "tern": 660,
      "Ġover": 661,
      "ond": 662,
      "rit": 663,
      "Ġ3": 664,
      "Ġtra": 665,
      "ms": 666,
      "Ġthese": 667,
      "ll": 668,
      "Ġ-": 669,
      "ational": 670,
      "ual": 671,
      "lic": 672,
      "rough": 673,
      "int": 674,
      "Ġcol": 675,
      "Ġwould": 676,
      "ause": 677,
      "irst": 678,
      "Ġ200": 679,
      "Ġpeople": 680,
      "Ġtw": 681,
      "Ġtime": 682,
      "red": 683,
      "Ġro": 684,
      "ove": 685,
      "ĠUn": 686,
      "Ġwork": 687,
      "Ġnew": 688,
      "lect": 689,
      "Ġbl": 690,
      "ject": 691,
      "te": 692,
      "Ġcons": 693,
      "ific": 694,
      "Ġmost": 695,
      "Ġrep": 696,
      "ments": 697,
      "ys": 698,
      "Ġdes": 699,
      "hed": 700,
      "Ġuse": 701,
      "we": 702,
      "Ġgen": 703,
      "velop": 704,
      "Ġsuch": 705,
      "ĠThis": 706,
      "Ġunder": 707,
      "Ġbet": 708,
      "Ġhow": 709,
      "ities": 710,
      "alth": 711,
      "),": 712,
      "Ġdiff": 713,
      "les": 714,
      "row": 715,
      "Ġinclud": 716,
      "Ġact": 717,
      "Ġacc": 718,
      "Ġno": 719,
      "ĠY": 720,
      "ook": 721,
      "Ġrel": 722,
      "stem": 723,
      "Ġ20": 724,
      "Ġknow": 725,
      "Ġchild": 726,
      "Ġif": 727,
      "Ġany": 728,
      "Ġonly": 729,
      "Ġeff": 730,
      "ious": 731,
      "ced": 732,
      "ov": 733,
      "Ġlike": 734,
      "ool": 735,
      "Ġfirst": 736,
      "Ġspec": 737,
      "Ġprov": 738,
      "Ġtr": 739,
      "Ġoff": 740,
      "ob": 741,
      "iss": 742,
      "ple": 743,
      "ning": 744,
      "ative": 745,
      "Ġph": 746,
      "fter": 747,
      "Ġtwo": 748,
      "ied": 749,
      "rib": 750,
      "ular": 751,
      "ĠHe": 752,
      "Ġam": 753,
      "Ġdevelop": 754,
      "Ġused": 755,
      "Ġind": 756,
      "ath": 757,
      "yp": 758,
      "ating": 759,
      "erm": 760,
      "Ġmany": 761,
      "Ġprodu": 762,
      "Ġour": 763,
      "rop": 764,
      "Ġneed": 765,
      "ise": 766,
      "ics": 767,
      "ne": 768,
      "ark": 769,
      "oss": 770,
      "Ġreg": 771,
      "Ġob": 772,
      "ts": 773,
      "als": 774,
      "Ġsc": 775,
      "Ġwhat": 776,
      "cess": 777,
      "Ġexp": 778,
      "Ġthrough": 779,
      "Ġpo": 780,
      "uring": 781,
      "Ġsur": 782,
      "uc": 783,
      "arch": 784,
      "iet": 785,
      "meric": 786,
      "old": 787,
      "Ġyears": 788,
      "round": 789,
      "Ġfe": 790,
      "ble": 791,
      "Ġsystem": 792,
      "Ġatt": 793,
      "Ġac": 794,
      "hen": 795,
      "cy": 796,
      "Ġem": 797,
      "Ġdec": 798,
      "ram": 799,
      "oth": 800,
      "Ġass": 801,
      "Ġpr": 802,
      "ink": 803,
      "Ġhel": 804,
      "ert": 805,
      "aw": 806,
      "ited": 807,
      "ange": 808,
      "Ġsub": 809,
      "Ġfl": 810,
      "ased": 811,
      "ible": 812,
      "ures": 813,
      "ten": 814,
      "ution": 815,
      "ng": 816,
      "Ġco": 817,
      "Ġ4": 818,
      "ful": 819,
      "Ġadd": 820,
      "ife": 821,
      "Ġrem": 822,
      "ade": 823,
      "fore": 824,
      "Ġhelp": 825,
      "In": 826,
      "ility": 827,
      "gan": 828,
      "Ġsupp": 829,
      "sel": 830,
      "land": 831,
      "ower": 832,
      "ĠAmeric": 833,
      "Ġshould": 834,
      "ists": 835,
      "Ġpres": 836,
      "ween": 837,
      "hes": 838,
      "Ġrese": 839,
      "Ġdiffere": 840,
      "Ġ5": 841,
      "ivers": 842,
      "own": 843,
      "Ġinv": 844,
      "Ġcould": 845,
      "Ġwater": 846,
      "..": 847,
      "uch": 848,
      "ered": 849,
      "Ġsaid": 850,
      "ĠAs": 851,
      "Ġ18": 852,
      "Ġsm": 853,
      "eth": 854,
      "ormation": 855,
      "ily": 856,
      "Ġear": 857,
      "Ġwell": 858,
      "Ġbetween": 859,
      "Ġhigh": 860,
      "ident": 861,
      "chool": 862,
      "ick": 863,
      "Ġpol": 864,
      "wn": 865,
      "ural": 866,
      "ract": 867,
      "ology": 868,
      "Ġwhere": 869,
      "ont": 870,
      "ines": 871,
      "xt": 872,
      "Ġnum": 873,
      "its": 874,
      "Ġfound": 875,
      "Ġform": 876,
      "ever": 877,
      "cer": 878,
      "Ġlar": 879,
      "ants": 880,
      "Ġinst": 881,
      "Ġher": 882,
      ".\"": 883,
      "Ġinter": 884,
      "Ġbu": 885,
      "ism": 886,
      "Ġafter": 887,
      "Ġcent": 888,
      "ict": 889,
      "ins": 890,
      "ually": 891,
      "ft": 892,
      "Ġ201": 893,
      "Ġmod": 894,
      "Ġcall": 895,
      "Ġed": 896,
      "Ġpers": 897,
      "Ġtrans": 898,
      "Ġpub": 899,
      "urn": 900,
      "gy": 901,
      "ef": 902,
      "Ġmed": 903,
      "vent": 904,
      "Ġcount": 905,
      "Ġref": 906,
      "cent": 907,
      "Ġhealth": 908,
      "Ġlong": 909,
      "Ġexam": 910,
      "iew": 911,
      "other": 912,
      "Ġprog": 913,
      "chn": 914,
      "ved": 915,
      "cept": 916,
      "Ġthose": 917,
      "Ġcar": 918,
      "Ġgener": 919,
      "Ġbecause": 920,
      "Ġmake": 921,
      "itt": 922,
      "Ġeffect": 923,
      "Ġvery": 924,
      "Ġdet": 925,
      "oy": 926,
      "ness": 927,
      "omm": 928,
      "Ġthen": 929,
      "vern": 930,
      "ature": 931,
      "Ġincre": 932,
      "Ġworld": 933,
      "Ġsim": 934,
      "the": 935,
      "Th": 936,
      "ĠAl": 937,
      "Ġimport": 938,
      "roup": 939,
      "Ġdisc": 940,
      "Ġinformation": 941,
      "ollow": 942,
      "Ġget": 943,
      "Ġhum": 944,
      "Ġeven": 945,
      "Ġjust": 946,
      "Ġext": 947,
      "Ġloc": 948,
      "Ġsee": 949,
      "ĠPro": 950,
      "Ġresp": 951,
      "ically": 952,
      "get": 953,
      "arm": 954,
      "ds": 955,
      "Ġsign": 956,
      "Ġsci": 957,
      "Ġtyp": 958,
      "ases": 959,
      "Ġgra": 960,
      "Ġchildren": 961,
      "iversity": 962,
      "ather": 963,
      "Ġdist": 964,
      "ck": 965,
      "Ġdef": 966,
      "Ġresult": 967,
      "ork": 968,
      "Ġmon": 969,
      "io": 970,
      "ives": 971,
      "Ġca": 972,
      "Ġpat": 973,
      "Ġsec": 974,
      "ĠNew": 975,
      "Ġeach": 976,
      "led": 977,
      "19": 978,
      "Ġdifferent": 979,
      "ues": 980,
      "Ġpartic": 981,
      "Ġfam": 982,
      "Ġshe": 983,
      "aking": 984,
      "Ġway": 985,
      "imes": 986,
      "Ġvar": 987,
      "ages": 988,
      "Ġ6": 989,
      "Ġfact": 990,
      "ĠWh": 991,
      "Ġexper": 992,
      "orn": 993,
      "iron": 994,
      "ata": 995,
      "Ġbeing": 996,
      "Ġduring": 997,
      "Ġmuch": 998,
      "Ġent": 999,
      "ized": 1000,
      "Ġset": 1001,
      "Ġsame": 1002,
      "ex": 1003,
      "Ġmade": 1004,
      "onom": 1005,
      "Ġstudy": 1006,
      "Ġdep": 1007,
      "Ġfollow": 1008,
      "ĠRe": 1009,
      "ros": 1010,
      "ĠAr": 1011,
      ",\"": 1012,
      "||": 1013,
      "000": 1014,
      "Ġaut": 1015,
      "Ġright": 1016,
      "Ġrequ": 1017,
      "Ġke": 1018,
      "Ġart": 1019,
      "Ġevery": 1020,
      "ward": 1021,
      "ruct": 1022,
      "ection": 1023,
      "Ġtest": 1024,
      "und": 1025,
      "gg": 1026,
      ".,": 1027,
      "Ġcommun": 1028,
      "Ġlife": 1029,
      "ĠWe": 1030,
      "ished": 1031,
      "ars": 1032,
      "Ġ199": 1033,
      "'t": 1034,
      "Ġgroup": 1035,
      "ince": 1036,
      "any": 1037,
      "iel": 1038,
      "ody": 1039,
      "Ġown": 1040,
      "Ġproble": 1041,
      "Ġhist": 1042,
      "ices": 1043,
      "ale": 1044,
      "omen": 1045,
      "Ġdi": 1046,
      "Ġschool": 1047,
      "Ġhim": 1048,
      "Ġlevel": 1049,
      "Ġsoc": 1050,
      "ĠSp": 1051,
      "Ġprocess": 1052,
      "Ġav": 1053,
      "Ġpop": 1054,
      "Ġsmall": 1055,
      "Ġtreat": 1056,
      "ix": 1057,
      "ĠFor": 1058,
      "Ġcre": 1059,
      "Ġlead": 1060,
      "ĠAn": 1061,
      "Ġfind": 1062,
      "Ġend": 1063,
      "Ġocc": 1064,
      "Ġbefore": 1065,
      "Ġtechn": 1066,
      "Ġboth": 1067,
      "Ġdoes": 1068,
      "ah": 1069,
      "ting": 1070,
      "ined": 1071,
      "ran": 1072,
      "Ġread": 1073,
      "hem": 1074,
      "ize": 1075,
      "ĠThey": 1076,
      "ute": 1077,
      "read": 1078,
      "Ġstate": 1079,
      "Ġmy": 1080,
      "oh": 1081,
      "Ġins": 1082,
      "Ġcur": 1083,
      "Ġagain": 1084,
      "Ġfood": 1085,
      "âĢĶ": 1086,
      "ĠIf": 1087,
      "Ġshow": 1088,
      "Ġmin": 1089,
      "hip": 1090,
      "irect": 1091,
      "ergy": 1092,
      "Ġec": 1093,
      "rol": 1094,
      "nce": 1095,
      "inal": 1096,
      "ty": 1097,
      "viron": 1098,
      "Ġback": 1099,
      "up": 1100,
      "Ġimportant": 1101,
      "imate": 1102,
      "form": 1103,
      "Ġnow": 1104,
      "Ġstr": 1105,
      "Ġserv": 1106,
      "Ġdise": 1107,
      "Ġperson": 1108,
      "ially": 1109,
      "Ġgl": 1110,
      "Ġnumber": 1111,
      "Ġlear": 1112,
      "ury": 1113,
      "Ġsk": 1114,
      "ock": 1115,
      "Ġgrow": 1116,
      "ax": 1117,
      "Ġprovid": 1118,
      "ral": 1119,
      "Ġbo": 1120,
      "Ġmem": 1121,
      "ven": 1122,
      "ient": 1123,
      "Ġstudents": 1124,
      "Ġexpl": 1125,
      "Ġreport": 1126,
      "ĠâĢĵ": 1127,
      "Ġgovern": 1128,
      "Ġresearch": 1129,
      "hers": 1130,
      "Ġris": 1131,
      "ters": 1132,
      "ier": 1133,
      "Ġless": 1134,
      "Ġposs": 1135,
      "Ġoften": 1136,
      "Ġest": 1137,
      "ving": 1138,
      "Ġcomple": 1139,
      "Ġgood": 1140,
      "Ġthree": 1141,
      "ands": 1142,
      "Ġcell": 1143,
      "Ġ10": 1144,
      "ected": 1145,
      "der": 1146,
      "air": 1147,
      "ulation": 1148,
      "ves": 1149,
      "Ġmust": 1150,
      "ger": 1151,
      "ivid": 1152,
      "ĠInd": 1153,
      "Ġval": 1154,
      "Ġ7": 1155,
      "ĠBut": 1156,
      "Ġvis": 1157,
      "Ġprot": 1158,
      "vironment": 1159,
      "cl": 1160,
      "Ġcalled": 1161,
      ".âĢĿ": 1162,
      "outh": 1163,
      "Ġbel": 1164,
      "Ġdid": 1165,
      "Ġorgan": 1166,
      "Ġday": 1167,
      "Ġhuman": 1168,
      "Ġchar": 1169,
      "Ġlarge": 1170,
      "Ġelect": 1171,
      "ĠUniversity": 1172,
      "ave": 1173,
      "aj": 1174,
      "Ġwhile": 1175,
      "ouse": 1176,
      "ĠIs": 1177,
      "Ġpower": 1178,
      "Ġser": 1179,
      "uss": 1180,
      "Ġ8": 1181,
      "ee": 1182,
      "Ġdata": 1183,
      "ency": 1184,
      "ains": 1185,
      "Ġconf": 1186,
      "ĠAmerican": 1187,
      "rent": 1188,
      "ton": 1189,
      "Ġpublic": 1190,
      "Ġtake": 1191,
      "dition": 1192,
      "ĠHow": 1193,
      "Ġdesign": 1194,
      "Ġmain": 1195,
      "Ġusing": 1196,
      "Ġcare": 1197,
      "ality": 1198,
      "Ġret": 1199,
      "Ġplan": 1200,
      "day": 1201,
      "ash": 1202,
      "Ġcontin": 1203,
      "Ġincluding": 1204,
      "akes": 1205,
      "ull": 1206,
      "ron": 1207,
      "Ġdown": 1208,
      "Ġsupport": 1209,
      "Ġsol": 1210,
      "Ġpoint": 1211,
      "man": 1212,
      "iety": 1213,
      "Ġgreat": 1214,
      "itions": 1215,
      "Ġ9": 1216,
      "Ġredu": 1217,
      "oci": 1218,
      "com": 1219,
      "eg": 1220,
      "self": 1221,
      "osed": 1222,
      "This": 1223,
      "Ġcommon": 1224,
      "Ġclass": 1225,
      "Ġactiv": 1226,
      "ared": 1227,
      "amp": 1228,
      "eral": 1229,
      "iqu": 1230,
      "stand": 1231,
      "Ġop": 1232,
      "ional": 1233,
      "Ġfun": 1234,
      "orth": 1235,
      "ring": 1236,
      "Ġcor": 1237,
      "Ġexample": 1238,
      "Ġbody": 1239,
      "way": 1240,
      "reen": 1241,
      "rain": 1242,
      "Ġconsid": 1243,
      "ital": 1244,
      "Ġaround": 1245,
      "ĠAnd": 1246,
      "Ġthough": 1247,
      "stit": 1248,
      "illion": 1249,
      "Ġcle": 1250,
      "oun": 1251,
      "Ġequ": 1252,
      "Ġknown": 1253,
      "bers": 1254,
      "oms": 1255,
      "10": 1256,
      "ources": 1257,
      "Ġaff": 1258,
      "Ġcour": 1259,
      "Ġmet": 1260,
      "sp": 1261,
      "iod": 1262,
      "acter": 1263,
      "aterial": 1264,
      "Ġpercent": 1265,
      "Ġlook": 1266,
      "ĠDe": 1267,
      "esp": 1268,
      "ted": 1269,
      "raph": 1270,
      "agn": 1271,
      "Wh": 1272,
      "Ġadv": 1273,
      "Ġblood": 1274,
      "20": 1275,
      "Ġstill": 1276,
      "ĠUnited": 1277,
      "els": 1278,
      "ium": 1279,
      "Ġdirect": 1280,
      "ians": 1281,
      "ids": 1282,
      "ries": 1283,
      "Ġdisease": 1284,
      "Ġeduc": 1285,
      "ross": 1286,
      "ug": 1287,
      "Ġmat": 1288,
      "Ġfew": 1289,
      "ired": 1290,
      "Ġsays": 1291,
      "Ġallow": 1292,
      "de": 1293,
      "Ġbuild": 1294,
      "ĠPh": 1295,
      "Ġsom": 1296,
      "Ġgu": 1297,
      "Ġappro": 1298,
      "ination": 1299,
      "Ġplace": 1300,
      "iven": 1301,
      "to": 1302,
      "ĠCon": 1303,
      "ration": 1304,
      "ior": 1305,
      "ization": 1306,
      "Ġwrit": 1307,
      "Ġmight": 1308,
      "ained": 1309,
      "ĠThere": 1310,
      "Ġwomen": 1311,
      "Ġstart": 1312,
      "Ġdem": 1313,
      "Ġquest": 1314,
      "Ġgovernment": 1315,
      "iving": 1316,
      "Ġair": 1317,
      "lish": 1318,
      "ording": 1319,
      "Ġpresent": 1320,
      "Ġenergy": 1321,
      "Ġcaus": 1322,
      "erest": 1323,
      "lished": 1324,
      "ense": 1325,
      "Ġchang": 1326,
      "Ġmil": 1327,
      "ris": 1328,
      "ified": 1329,
      "Ġsl": 1330,
      "ield": 1331,
      "arc": 1332,
      "ajor": 1333,
      "Ġarea": 1334,
      "ason": 1335,
      "Ġlight": 1336,
      "ertain": 1337,
      "Ġbeh": 1338,
      "Ġwar": 1339,
      "Ġ[": 1340,
      "arent": 1341,
      "rist": 1342,
      "Ġlaw": 1343,
      "Ġwithin": 1344,
      "Ġscient": 1345,
      "ĠEng": 1346,
      "Ġwithout": 1347,
      "atural": 1348,
      "ĠStates": 1349,
      "Ġanother": 1350,
      "Ġphys": 1351,
      "Ġsym": 1352,
      "Ġprogram": 1353,
      "Ġinclude": 1354,
      "ividual": 1355,
      "ission": 1356,
      "less": 1357,
      "ner": 1358,
      "Ġdevelopment": 1359,
      "Ġpass": 1360,
      "Ġthink": 1361,
      "Ġdesc": 1362,
      "hor": 1363,
      "Ġmaterial": 1364,
      "tt": 1365,
      "Ġeconom": 1366,
      "ĠRes": 1367,
      "Ġproject": 1368,
      "Ġchange": 1369,
      "iver": 1370,
      "Ġtem": 1371,
      "Ġstand": 1372,
      "Ġrisk": 1373,
      "Ġimm": 1374,
      "ological": 1375,
      "Ġearly": 1376,
      "Ġbre": 1377,
      "ption": 1378,
      "ering": 1379,
      "Ġprof": 1380,
      "Ġenvironment": 1381,
      "Ġcap": 1382,
      "Ġant": 1383,
      "ĠThese": 1384,
      "Ġold": 1385,
      "bs": 1386,
      "Ġiss": 1387,
      "Ġpur": 1388,
      "Ġnear": 1389,
      "Ġfore": 1390,
      "Ġlast": 1391,
      "line": 1392,
      "Ġland": 1393,
      "Ġbelie": 1394,
      "Ġmeas": 1395,
      "here": 1396,
      "Ġ'": 1397,
      "Ġsever": 1398,
      "Ġide": 1399,
      "gin": 1400,
      "eng": 1401,
      "az": 1402,
      "Ġspecies": 1403,
      ",âĢĿ": 1404,
      "ĠCol": 1405,
      "inc": 1406,
      "att": 1407,
      "ets": 1408,
      "ailable": 1409,
      "Ġleg": 1410,
      "ently": 1411,
      "ĠAd": 1412,
      "ource": 1413,
      "ĠNational": 1414,
      "atic": 1415,
      "ww": 1416,
      "ision": 1417,
      "Ġoccur": 1418,
      "sy": 1419,
      "view": 1420,
      "Ġpract": 1421,
      "Ġ15": 1422,
      "me": 1423,
      "Ġeas": 1424,
      "ccess": 1425,
      "alk": 1426,
      "âĢĵ": 1427,
      "osp": 1428,
      "ĠCent": 1429,
      "rodu": 1430,
      "Ġsecond": 1431,
      "ived": 1432,
      "ĠSe": 1433,
      "Ġhistory": 1434,
      "ern": 1435,
      "Ġrest": 1436,
      "Ġident": 1437,
      "use": 1438,
      "Ġve": 1439,
      "Ġagainst": 1440,
      "Ġindividual": 1441,
      "Ġmajor": 1442,
      "ĠSh": 1443,
      "Ġmen": 1444,
      "Ġcontrol": 1445,
      "Ġinterest": 1446,
      "ĠâĢĶ": 1447,
      "ator": 1448,
      "angu": 1449,
      "ograph": 1450,
      "itive": 1451,
      "of": 1452,
      "Ġbas": 1453,
      "ina": 1454,
      "Ġanim": 1455,
      "Ġlow": 1456,
      "ĠCl": 1457,
      "ential": 1458,
      "lement": 1459,
      "ned": 1460,
      "ĠYou": 1461,
      "Ġtre": 1462,
      "Ġseveral": 1463,
      "Ġhand": 1464,
      "ats": 1465,
      "Ġunderstand": 1466,
      "ote": 1467,
      "Ġdon": 1468,
      "Ġsay": 1469,
      "ik": 1470,
      "Ġfamily": 1471,
      "Ġunt": 1472,
      "ĠComm": 1473,
      "Ġwant": 1474,
      "ards": 1475,
      "Ġproduct": 1476,
      "Ġhere": 1477,
      "ites": 1478,
      "rap": 1479,
      "Ġplay": 1480,
      "Ġeng": 1481,
      "Ġoper": 1482,
      "Ġ.": 1483,
      "olution": 1484,
      "Ġter": 1485,
      "Ġhome": 1486,
      "Ġmeth": 1487,
      "Ġ&": 1488,
      "Ġorig": 1489,
      "It": 1490,
      "ank": 1491,
      "though": 1492,
      "Ġopp": 1493,
      "Ġimpro": 1494,
      "idence": 1495,
      "Ġmark": 1496,
      "Ġpos": 1497,
      "Ġpot": 1498,
      "Ġpain": 1499,
      "Ġpar": 1500,
      "Ġexperi": 1501,
      "omp": 1502,
      "Ġ17": 1503,
      "ĠGod": 1504,
      "ret": 1505,
      "Ġamong": 1506,
      "Ġparticular": 1507,
      "urop": 1508,
      "Ġmove": 1509,
      "ĠEn": 1510,
      "Ġcurrent": 1511,
      "ittle": 1512,
      "Ġtreatment": 1513,
      "Ġperiod": 1514,
      "ients": 1515,
      "Ġcause": 1516,
      "Ġareas": 1517,
      "Ġsince": 1518,
      "Ġavailable": 1519,
      "lu": 1520,
      "ining": 1521,
      "Ġmar": 1522,
      "Ġprop": 1523,
      "ify": 1524,
      "Ġbecome": 1525,
      "ĠCan": 1526,
      "Ġben": 1527,
      "icle": 1528,
      "Ġcult": 1529,
      "Ġfour": 1530,
      "eed": 1531,
      "cing": 1532,
      "ability": 1533,
      "Ġconst": 1534,
      "Ġpri": 1535,
      "12": 1536,
      "ead": 1537,
      "Ġprovide": 1538,
      "abor": 1539,
      "min": 1540,
      "Ġtoo": 1541,
      "ories": 1542,
      "Ġreal": 1543,
      "Ġproper": 1544,
      "ĠAt": 1545,
      "ably": 1546,
      "Ġpossible": 1547,
      "ended": 1548,
      "Ġmus": 1549,
      "âĢľ": 1550,
      "Ġhig": 1551,
      "Ġel": 1552,
      "Ġcancer": 1553,
      "Ġbir": 1554,
      "ĠEx": 1555,
      "Ġlim": 1556,
      "Ġaddition": 1557,
      "Ġinvol": 1558,
      "Ġopen": 1559,
      "ames": 1560,
      "Ġnon": 1561,
      "Ġorder": 1562,
      "Ġname": 1563,
      "Ġ0": 1564,
      "ways": 1565,
      "Ġsocial": 1566,
      "ole": 1567,
      "ention": 1568,
      "Ġhead": 1569,
      "ĠZ": 1570,
      "Ġrad": 1571,
      "ohn": 1572,
      "urope": 1573,
      "Ġanal": 1574,
      "ples": 1575,
      "ĠMed": 1576,
      "une": 1577,
      "ences": 1578,
      "oid": 1579,
      "Ġcountry": 1580,
      "Ġview": 1581,
      "Ġobject": 1582,
      "Ġ12": 1583,
      "gen": 1584,
      "par": 1585,
      "Ġbest": 1586,
      "Ġfollowing": 1587,
      "ĠPl": 1588,
      "Ġperform": 1589,
      "...": 1590,
      "ggest": 1591,
      "Ġmonth": 1592,
      "Ġbetter": 1593,
      "irc": 1594,
      "ĠChrist": 1595,
      "Ġdev": 1596,
      "ĠAf": 1597,
      "Ġrece": 1598,
      "iness": 1599,
      "ilar": 1600,
      "Ġlocal": 1601,
      "ental": 1602,
      "Ġche": 1603,
      "ĠQ": 1604,
      "Ġwee": 1605,
      "Ġprevent": 1606,
      "Ġindu": 1607,
      "Ġheart": 1608,
      "Ġ198": 1609,
      "Ġbro": 1610,
      "Ġlater": 1611,
      "ĠHowever": 1612,
      "Ġpress": 1613,
      "ither": 1614,
      "resent": 1615,
      "Ġcond": 1616,
      "ĠOr": 1617,
      "18": 1618,
      "Ġage": 1619,
      "Ġvol": 1620,
      "Ġet": 1621,
      "Ġcost": 1622,
      "Ġtimes": 1623,
      "Ġmethod": 1624,
      "ĠWhen": 1625,
      "Ġcal": 1626,
      "Ġcells": 1627,
      "ends": 1628,
      "Ġmeans": 1629,
      "Ġnatural": 1630,
      "Ġproblems": 1631,
      "Ġfre": 1632,
      "Ġfar": 1633,
      "ĠAll": 1634,
      "Ġgiven": 1635,
      "Ġsuggest": 1636,
      "Ġcertain": 1637,
      "oint": 1638,
      "Ġdel": 1639,
      "Ġbi": 1640,
      "Ġothers": 1641,
      "ternational": 1642,
      "orld": 1643,
      "not": 1644,
      "Ġtop": 1645,
      "Ġfin": 1646,
      "ĠEurope": 1647,
      "ogn": 1648,
      "ope": 1649,
      "ged": 1650,
      "Ġtri": 1651,
      "ling": 1652,
      "pr": 1653,
      "Ġlittle": 1654,
      "be": 1655,
      "Ġobs": 1656,
      "face": 1657,
      "Ġuntil": 1658,
      "Ġbook": 1659,
      "rid": 1660,
      "Ġrun": 1661,
      "iter": 1662,
      "Ġlangu": 1663,
      "Ġyoung": 1664,
      "Ġmillion": 1665,
      "200": 1666,
      "ĠSci": 1667,
      "Ġkeep": 1668,
      "por": 1669,
      "aken": 1670,
      "Ġcase": 1671,
      "ware": 1672,
      "Ġlist": 1673,
      "urther": 1674,
      "Ġ--": 1675,
      "Ġfac": 1676,
      "atory": 1677,
      "Ġsignific": 1678,
      "Ġfree": 1679,
      "Ġ16": 1680,
      "Ġthings": 1681,
      "Ġbased": 1682,
      "Ġsaf": 1683,
      "ills": 1684,
      "Ġappear": 1685,
      "aps": 1686,
      "oks": 1687,
      "ĠTo": 1688,
      "Ġmean": 1689,
      "ised": 1690,
      "Ġrecord": 1691,
      "Ġsuccess": 1692,
      "lection": 1693,
      "Ġassoci": 1694,
      "rug": 1695,
      "Ġseem": 1696,
      "Ġable": 1697,
      "ones": 1698,
      "Ġsw": 1699,
      "orts": 1700,
      "Ġcome": 1701,
      "Ġauthor": 1702,
      "Ġlevels": 1703,
      "Ġdoct": 1704,
      "Ġlo": 1705,
      "Ġproblem": 1706,
      "Ġusually": 1707,
      "oph": 1708,
      "Ġpolit": 1709,
      "ĠTe": 1710,
      "ĠOn": 1711,
      "We": 1712,
      "cial": 1713,
      "ploy": 1714,
      "ĠEar": 1715,
      "Ġ$": 1716,
      "Ġcomput": 1717,
      "ances": 1718,
      "ately": 1719,
      "Ġdeath": 1720,
      "Ġpost": 1721,
      "Ġput": 1722,
      "SA": 1723,
      "Ġdeterm": 1724,
      "11": 1725,
      "ured": 1726,
      "ĠJohn": 1727,
      "Ġexist": 1728,
      "50": 1729,
      "Ġtype": 1730,
      "Ġcentury": 1731,
      "Ġstruct": 1732,
      "Ġresearc": 1733,
      "ides": 1734,
      "Ġpopulation": 1735,
      "aper": 1736,
      "ots": 1737,
      "Ġhapp": 1738,
      "Ġbus": 1739,
      "Ġdays": 1740,
      "Ġhowever": 1741,
      "ane": 1742,
      "ĠWar": 1743,
      "Ġplant": 1744,
      "Ġaccess": 1745,
      "Ġturn": 1746,
      "ĠBe": 1747,
      "af": 1748,
      "Ġshort": 1749,
      "icult": 1750,
      "Ġlikely": 1751,
      "Ġhard": 1752,
      "Ġprom": 1753,
      "ĠHealth": 1754,
      "Ġill": 1755,
      "Ġpast": 1756,
      "ley": 1757,
      "vious": 1758,
      "Ġspace": 1759,
      "by": 1760,
      "ray": 1761,
      "Ġamount": 1762,
      "Ġbenef": 1763,
      "etic": 1764,
      "Ġalong": 1765,
      "app": 1766,
      "Ġcomb": 1767,
      "ĠAfric": 1768,
      "Ġ|": 1769,
      "isc": 1770,
      "Ġdra": 1771,
      "alf": 1772,
      "ox": 1773,
      "Ġflow": 1774,
      "over": 1775,
      "ression": 1776,
      "Ġresults": 1777,
      "Ġvir": 1778,
      "ects": 1779,
      "Ġestab": 1780,
      "Ġlet": 1781,
      "Ġsing": 1782,
      "Ġdescrib": 1783,
      "Ġcommunity": 1784,
      "ators": 1785,
      "aster": 1786,
      "Ġmedic": 1787,
      "ym": 1788,
      "erc": 1789,
      "Ġabove": 1790,
      "elf": 1791,
      "Ġleast": 1792,
      "\".": 1793,
      "Ġspecial": 1794,
      "ored": 1795,
      "Ġindust": 1796,
      "ember": 1797,
      "ode": 1798,
      "Ġsystems": 1799,
      "ape": 1800,
      "most": 1801,
      "Ġmov": 1802,
      "nal": 1803,
      "Ġsimilar": 1804,
      "If": 1805,
      "ĠBrit": 1806,
      "ptoms": 1807,
      "ler": 1808,
      "idd": 1809,
      "Ġrele": 1810,
      "mber": 1811,
      "erence": 1812,
      "ecially": 1813,
      "urch": 1814,
      "eb": 1815,
      "Ġsignificant": 1816,
      "Ġleft": 1817,
      "ribut": 1818,
      "ument": 1819,
      "edi": 1820,
      "ued": 1821,
      "Ġfil": 1822,
      "ĠJew": 1823,
      "Ġclear": 1824,
      "Ġcirc": 1825,
      "obal": 1826,
      "ĠSc": 1827,
      "As": 1828,
      "str": 1829,
      "Ġsite": 1830,
      "wh": 1831,
      "Ġeducation": 1832,
      "ott": 1833,
      "Ġnever": 1834,
      "Ġprofess": 1835,
      "aim": 1836,
      "ormal": 1837,
      "Ġconditions": 1838,
      "Ġcourse": 1839,
      "ĠWorld": 1840,
      "Ġcountries": 1841,
      "Ġnext": 1842,
      "ending": 1843,
      "Ġer": 1844,
      "Ġmult": 1845,
      "Ġgre": 1846,
      "especially": 1847,
      "Ġincrease": 1848,
      "ĠGen": 1849,
      "ĠBl": 1850,
      "ĠGerm": 1851,
      "Ġfunction": 1852,
      "oman": 1853,
      "work": 1854,
      "--": 1855,
      "Ġside": 1856,
      "Ġbecame": 1857,
      "aining": 1858,
      "for": 1859,
      "Ġgeneral": 1860,
      "ocus": 1861,
      "Ġoffic": 1862,
      "ruction": 1863,
      "Ġparent": 1864,
      "Ġbegin": 1865,
      "ething": 1866,
      "Ġinvest": 1867,
      "cle": 1868,
      "Ġdri": 1869,
      "Ġdiscuss": 1870,
      "Ġcharacter": 1871,
      "uture": 1872,
      "Ġfeel": 1873,
      "iation": 1874,
      "Ġchem": 1875,
      "ĠMay": 1876,
      "ledge": 1877,
      "Ġcases": 1878,
      "Ġstudies": 1879,
      "Ġbrain": 1880,
      "Ġenc": 1881,
      "Ġask": 1882,
      "ortun": 1883,
      "artment": 1884,
      "Ġdifficult": 1885,
      "ibr": 1886,
      "Ġplac": 1887,
      "Ġchanges": 1888,
      "Ġtoday": 1889,
      "Ġnecess": 1890,
      "Ġhigher": 1891,
      "ales": 1892,
      "org": 1893,
      "Ġbehav": 1894,
      "enn": 1895,
      "ours": 1896,
      "Ġpatients": 1897,
      "Ġprim": 1898,
      "ĠAmerica": 1899,
      "Ġcrit": 1900,
      "Ġ197": 1901,
      "yd": 1902,
      "ĠGe": 1903,
      "Ġtemper": 1904,
      "ĠCar": 1905,
      "ĠWhat": 1906,
      "let": 1907,
      "Ġrepresent": 1908,
      "Ġnational": 1909,
      "ĠCal": 1910,
      "Ġdam": 1911,
      "right": 1912,
      "Ġeffects": 1913,
      "Ġmaking": 1914,
      "ivil": 1915,
      "earch": 1916,
      "val": 1917,
      "Ġey": 1918,
      "asing": 1919,
      "duct": 1920,
      "Ġscience": 1921,
      "Ġterm": 1922,
      "Ġaway": 1923,
      "Ġwhether": 1924,
      "ively": 1925,
      "Ġlearn": 1926,
      "Ġtoget": 1927,
      "ae": 1928,
      "Ġtogether": 1929,
      "ilities": 1930,
      "Ġcreat": 1931,
      "What": 1932,
      "Ġalways": 1933,
      "Ġdr": 1934,
      "itor": 1935,
      "agement": 1936,
      "sw": 1937,
      "Ġkind": 1938,
      "ery": 1939,
      "ĠYork": 1940,
      "atch": 1941,
      "Ġdue": 1942,
      "Ġspecific": 1943,
      "Ġresearchers": 1944,
      "ĠNorth": 1945,
      "acc": 1946,
      "Ġcho": 1947,
      "ober": 1948,
      "Ġ30": 1949,
      "ffic": 1950,
      "Ġconn": 1951,
      "ĠLe": 1952,
      "Ġgive": 1953,
      "Ġpolic": 1954,
      "Ġstrong": 1955,
      "Ġindic": 1956,
      "St": 1957,
      "Ġ14": 1958,
      "Ġfull": 1959,
      "ĠAb": 1960,
      "NA": 1961,
      "ublic": 1962,
      "amm": 1963,
      "Ġapplic": 1964,
      "selves": 1965,
      "esc": 1966,
      "Ġteac": 1967,
      "Ġgr": 1968,
      "Ġespecially": 1969,
      "ĠSome": 1970,
      "Ġrespons": 1971,
      "ipp": 1972,
      "Ġcr": 1973,
      "ĠMar": 1974,
      "Ġtru": 1975,
      "Ġlanguage": 1976,
      "Ġconcer": 1977,
      "Ġdrug": 1978,
      "Ġgroups": 1979,
      "port": 1980,
      "ilt": 1981,
      "Ġmot": 1982,
      "aves": 1983,
      "Ġsomething": 1984,
      "30": 1985,
      "Ġenough": 1986,
      "son": 1987,
      "ung": 1988,
      "unt": 1989,
      "There": 1990,
      "Ġsubject": 1991,
      "Ġground": 1992,
      ".)": 1993,
      "Ġwind": 1994,
      "Ġcomplete": 1995,
      "rams": 1996,
      "Ġconsum": 1997,
      "Ġfund": 1998,
      "ĠDep": 1999,
      "Ġsymptoms": 2000,
      "omes": 2001,
      "apt": 2002,
      "iting": 2003,
      "ges": 2004,
      "Ġcity": 2005,
      "ĠSouth": 2006,
      "ĠâĢĺ": 2007,
      "ĠSo": 2008,
      "Ġrelig": 2009,
      "Ġwords": 2010,
      "Ġfocus": 2011,
      "ĠUS": 2012,
      "iam": 2013,
      "ird": 2014,
      "Ġimpact": 2015,
      "For": 2016,
      "oot": 2017,
      "ches": 2018,
      "Ġinflu": 2019,
      "ĠState": 2020,
      "Ġhaving": 2021,
      "Ġrequire": 2022,
      "Ġur": 2023,
      "overed": 2024,
      "etimes": 2025,
      "sych": 2026,
      "Ġmedical": 2027,
      "ann": 2028,
      "Ġupon": 2029,
      "ĠAss": 2030,
      "lo": 2031,
      "Ġann": 2032,
      "istic": 2033,
      "Ġpred": 2034,
      "Ġvarious": 2035,
      "Ġsum": 2036,
      "Ġhouse": 2037,
      "Ġfuture": 2038,
      "plic": 2039,
      "An": 2040,
      "Ġflu": 2041,
      "verage": 2042,
      "ateg": 2043,
      "Ġsurface": 2044,
      "reg": 2045,
      "ream": 2046,
      "hing": 2047,
      "side": 2048,
      "Ġline": 2049,
      "Ġeither": 2050,
      "Ġ2012": 2051,
      "Ġaccording": 2052,
      "Ġworks": 2053,
      "Ġdeveloped": 2054,
      "Ġlower": 2055,
      "Ġele": 2056,
      "osis": 2057,
      "Ġfurther": 2058,
      "yn": 2059,
      "Ġevidence": 2060,
      "Ġclose": 2061,
      "ready": 2062,
      "Ġtechnology": 2063,
      "Ġseen": 2064,
      "Ġteam": 2065,
      "ique": 2066,
      "Ġtry": 2067,
      "ison": 2068,
      "ĠEarth": 2069,
      "Ġacross": 2070,
      "//": 2071,
      "yl": 2072,
      "bon": 2073,
      "13": 2074,
      "ĠRep": 2075,
      "Ġtaken": 2076,
      "sh": 2077,
      "uel": 2078,
      "Ġreturn": 2079,
      "Ġprob": 2080,
      "Ġfive": 2081,
      "Ġresources": 2082,
      "ER": 2083,
      "Ġtext": 2084,
      "Ġz": 2085,
      "augh": 2086,
      "Ġquestion": 2087,
      "oney": 2088,
      "Ġoil": 2089,
      "Ġmembers": 2090,
      "Ġcame": 2091,
      "Ġconsider": 2092,
      "ĠGo": 2093,
      "Ġfield": 2094,
      "Ġneeds": 2095,
      "olic": 2096,
      "ule": 2097,
      "ĠX": 2098,
      "ĠOne": 2099,
      "ules": 2100,
      "Ġobserv": 2101,
      "Ġdone": 2102,
      "atures": 2103,
      "thing": 2104,
      "Ġaccount": 2105,
      "Ġreason": 2106,
      "Ġrather": 2107,
      "Ġfall": 2108,
      "Ġlearning": 2109,
      "iol": 2110,
      "rict": 2111,
      "rel": 2112,
      "ification": 2113,
      "ĠSoc": 2114,
      "Ġdeg": 2115,
      "eter": 2116,
      "Ġwhy": 2117,
      "Ġpublished": 2118,
      "Ġ196": 2119,
      "Ġphot": 2120,
      "Ġsit": 2121,
      "Ġgoing": 2122,
      "ires": 2123,
      "Ġworking": 2124,
      "15": 2125,
      "Ġplants": 2126,
      "ttp": 2127,
      "Ġstat": 2128,
      "Ġcollect": 2129,
      "ournal": 2130,
      "Ġfail": 2131,
      "ĠThat": 2132,
      "aut": 2133,
      "Ġsingle": 2134,
      "Ġmeet": 2135,
      "itary": 2136,
      "Ġalready": 2137,
      "ĠMan": 2138,
      "ibility": 2139,
      "://": 2140,
      "Ġmass": 2141,
      "aching": 2142,
      "Ġrange": 2143,
      "oon": 2144,
      "Ġ13": 2145,
      "gest": 2146,
      "ĠDr": 2147,
      "Ġsource": 2148,
      "Ġaddress": 2149,
      "Ġkey": 2150,
      "Ġsens": 2151,
      "Ġrights": 2152,
      "ĠAm": 2153,
      "ysis": 2154,
      "Ġparticip": 2155,
      "Ġlive": 2156,
      "Ġphysical": 2157,
      "):": 2158,
      "Ġdoc": 2159,
      "stitute": 2160,
      "Ġstates": 2161,
      "Ġexperience": 2162,
      "Ġcreate": 2163,
      "Ġimprove": 2164,
      "Ġdest": 2165,
      "ump": 2166,
      "ĠEnglish": 2167,
      "ried": 2168,
      "oll": 2169,
      "Ġproduction": 2170,
      "Ġrate": 2171,
      "ĠBy": 2172,
      "Ġtypes": 2173,
      "Ġevent": 2174,
      "Ġclimate": 2175,
      "Ġpolitical": 2176,
      "Ġabs": 2177,
      "Ġrole": 2178,
      "Ġtool": 2179,
      "roll": 2180,
      "Ġarticle": 2181,
      "estern": 2182,
      "Ġwhole": 2183,
      "Ġtot": 2184,
      "Ġred": 2185,
      "oura": 2186,
      "chie": 2187,
      "illed": 2188,
      "ĠAg": 2189,
      "Ġgas": 2190,
      "Ġhistor": 2191,
      "Ġcannot": 2192,
      "Ġpressure": 2193,
      "Ġ11": 2194,
      "Ġtoward": 2195,
      "put": 2196,
      "Ġnet": 2197,
      "Ġhalf": 2198,
      "Ġri": 2199,
      "ĠHis": 2200,
      "Ġrecogn": 2201,
      "Ġtradition": 2202,
      "opy": 2203,
      "Ġwhite": 2204,
      "Ġarg": 2205,
      "Ġways": 2206,
      "Ġbegan": 2207,
      "like": 2208,
      "ĠHist": 2209,
      "Ġvalue": 2210,
      "Ġ2011": 2211,
      "Ġonce": 2212,
      "Ġbig": 2213,
      "ask": 2214,
      "acks": 2215,
      "ĠAust": 2216,
      "ĠShe": 2217,
      "Ġactivity": 2218,
      "Ġport": 2219,
      "Ġblack": 2220,
      "Ġess": 2221,
      "ĠStud": 2222,
      "Ġreally": 2223,
      "ened": 2224,
      "Ġinit": 2225,
      "Ġsun": 2226,
      "Ġmic": 2227,
      "Ġbuilding": 2228,
      "Ġincreased": 2229,
      "Ġeconomic": 2230,
      "Ch": 2231,
      "Ġactivities": 2232,
      "ĠGu": 2233,
      "Ġknowledge": 2234,
      "Ġadult": 2235,
      "aring": 2236,
      "ĠCo": 2237,
      "reme": 2238,
      "Ġsize": 2239,
      "Ġgrowth": 2240,
      "Ġfamil": 2241,
      "Ġword": 2242,
      "ĠAct": 2243,
      "Ġthought": 2244,
      "Ġliving": 2245,
      "Ġdom": 2246,
      "Ġdoctor": 2247,
      "Ġthemselves": 2248,
      "vere": 2249,
      "ĠCenter": 2250,
      "ront": 2251,
      "Ġloss": 2252,
      "Ġrecomm": 2253,
      "Ġrelations": 2254,
      "hib": 2255,
      "Ġitself": 2256,
      "Ġmakes": 2257,
      "Ġprotect": 2258,
      "ĠWith": 2259,
      "my": 2260,
      "Ġtell": 2261,
      "Ġcamp": 2262,
      "Ġbusiness": 2263,
      "Ã©": 2264,
      "uation": 2265,
      "Ġemploy": 2266,
      "Ġfish": 2267,
      "16": 2268,
      "ĠIm": 2269,
      "Ġmodel": 2270,
      "Ġ2010": 2271,
      "Ġbelow": 2272,
      "Ġcreated": 2273,
      "Ġtook": 2274,
      "Ġdetail": 2275,
      "ederal": 2276,
      "Ġstory": 2277,
      "Ġyet": 2278,
      "Ġalmost": 2279,
      "ney": 2280,
      "Ġscientists": 2281,
      "Ġpriv": 2282,
      "lands": 2283,
      "Ġfrequ": 2284,
      "pro": 2285,
      "Ġanimals": 2286,
      "14": 2287,
      "Ġconsidered": 2288,
      "itud": 2289,
      "Ġstep": 2290,
      "Ġcut": 2291,
      "ington": 2292,
      "Ġneeded": 2293,
      "amin": 2294,
      "17": 2295,
      "Ġhold": 2296,
      "Ġassociated": 2297,
      "Ġengine": 2298,
      "cient": 2299,
      "oses": 2300,
      "Ġpaper": 2301,
      "alt": 2302,
      "Ġsent": 2303,
      "Ġskin": 2304,
      "Ġopt": 2305,
      "Ġregion": 2306,
      "Ġmonths": 2307,
      "Ġweek": 2308,
      "Ġwr": 2309,
      "ulations": 2310,
      "ights": 2311,
      "Ġwide": 2312,
      "Ġpotential": 2313,
      "Ġrelated": 2314,
      "ystem": 2315,
      "ĠComp": 2316,
      "minist": 2317,
      "rad": 2318,
      "itted": 2319,
      "sc": 2320,
      "epend": 2321,
      "fact": 2322,
      "Ġreduce": 2323,
      "iple": 2324,
      "Ġservices": 2325,
      "Ġproducts": 2326,
      "Al": 2327,
      "apan": 2328,
      "fer": 2329,
      "How": 2330,
      "Ġself": 2331,
      "Ġnature": 2332,
      "sequ": 2333,
      "Ġentire": 2334,
      "Ġfri": 2335,
      "bo": 2336,
      "ables": 2337,
      "Ġparts": 2338,
      "Ġvers": 2339,
      "Ġ194": 2340,
      "Ġclaim": 2341,
      "Ġlay": 2342,
      "Ġprovided": 2343,
      "Ġsuper": 2344,
      "Ġmodern": 2345,
      "acy": 2346,
      "Ġsix": 2347,
      "Ġsure": 2348,
      "Ġglobal": 2349,
      "Ġprovides": 2350,
      "rect": 2351,
      "Ġansw": 2352,
      "ai": 2353,
      "ĠII": 2354,
      "Ġla": 2355,
      "Ġquestions": 2356,
      "Ġ50": 2357,
      "Ġlab": 2358,
      "Ġge": 2359,
      "ene": 2360,
      "ĠPres": 2361,
      "Ġver": 2362,
      "Ġrecent": 2363,
      "empt": 2364,
      "ĠResearch": 2365,
      "ume": 2366,
      "ush": 2367,
      "Ġarch": 2368,
      "lor": 2369,
      "Ġachie": 2370,
      "Ġneg": 2371,
      "Ġbar": 2372,
      "Ġmor": 2373,
      "attle": 2374,
      "abit": 2375,
      "pid": 2376,
      "Ġsam": 2377,
      "Ġcomputer": 2378,
      "go": 2379,
      "Ġquality": 2380,
      "iddle": 2381,
      "erve": 2382,
      "Ġ100": 2383,
      "Ġintrodu": 2384,
      "ster": 2385,
      "irm": 2386,
      "ips": 2387,
      "ma": 2388,
      "Ġemer": 2389,
      "Ġconduct": 2390,
      "Ġsepar": 2391,
      "Ġ25": 2392,
      "rown": 2393,
      "ivity": 2394,
      "inter": 2395,
      "Ġnut": 2396,
      "ensive": 2397,
      "Ġfarm": 2398,
      "ety": 2399,
      "aff": 2400,
      "Ġrequired": 2401,
      "ĠBritish": 2402,
      "lying": 2403,
      "ĠSchool": 2404,
      "Ġproduce": 2405,
      "ows": 2406,
      "Ġactually": 2407,
      "urs": 2408,
      "ĠCont": 2409,
      "ricult": 2410,
      "Ġmeasure": 2411,
      "icles": 2412,
      "eds": 2413,
      "ections": 2414,
      "Ġgreen": 2415,
      "Ġdeb": 2416,
      "To": 2417,
      "ĠPr": 2418,
      "aries": 2419,
      "Ġever": 2420,
      "mb": 2421,
      "Ġprograms": 2422,
      "Ġdiagn": 2423,
      "Ġsound": 2424,
      "ĠDepartment": 2425,
      "Ġissues": 2426,
      "Ġconcept": 2427,
      "rie": 2428,
      "Ġmind": 2429,
      "Ġlink": 2430,
      "ops": 2431,
      "When": 2432,
      "Ġpurp": 2433,
      "Ġmaterials": 2434,
      "Ġcondition": 2435,
      "Ġpay": 2436,
      "Ġparents": 2437,
      "ĠScience": 2438,
      "aged": 2439,
      "Ġreact": 2440,
      "rought": 2441,
      "ĠCanad": 2442,
      "vey": 2443,
      "'re": 2444,
      "ript": 2445,
      "inary": 2446,
      "ĠNo": 2447,
      "ES": 2448,
      "ese": 2449,
      "ervation": 2450,
      "Ġcy": 2451,
      "Ġchall": 2452,
      "chan": 2453,
      "rated": 2454,
      "ĠTr": 2455,
      "Ġcommunic": 2456,
      "Ġservice": 2457,
      "Ġdig": 2458,
      "Ġchemical": 2459,
      "Ġweight": 2460,
      "Ġeffective": 2461,
      "Ġhttp": 2462,
      "AR": 2463,
      "Ġenvironmental": 2464,
      "ister": 2465,
      "ĠHar": 2466,
      "ĠNe": 2467,
      "Ġliter": 2468,
      "Ġschools": 2469,
      "ĠJapan": 2470,
      "Ġpage": 2471,
      "ched": 2472,
      "urity": 2473,
      "Ġbur": 2474,
      "ores": 2475,
      "Ġfat": 2476,
      "Ġcoll": 2477,
      "Ġsoil": 2478,
      "iction": 2479,
      "Ġdiet": 2480,
      "lege": 2481,
      "Ġreported": 2482,
      "Ġcaused": 2483,
      "atter": 2484,
      "Ġspe": 2485,
      "Ġtotal": 2486,
      "Ġfire": 2487,
      "ĠPe": 2488,
      "ĠWill": 2489,
      "Ġsimple": 2490,
      "Ġregard": 2491,
      "Ġnecessary": 2492,
      "Ġidea": 2493,
      "Ġmarket": 2494,
      "cil": 2495,
      "lt": 2496,
      "Ġmaint": 2497,
      "ID": 2498,
      "Ġquick": 2499,
      "ging": 2500,
      "Ġdisord": 2501,
      "ply": 2502,
      "utes": 2503,
      "Ġlot": 2504,
      "abet": 2505,
      "Ġhours": 2506,
      "Ġsex": 2507,
      "Ġearth": 2508,
      "Ġheav": 2509,
      "Ġprevious": 2510,
      "Ġcomplex": 2511,
      "utions": 2512,
      "Ġshows": 2513,
      "Ġsometimes": 2514,
      "Ġforest": 2515,
      "Ġtravel": 2516,
      "hood": 2517,
      "Ġ2008": 2518,
      "But": 2519,
      "mon": 2520,
      "Ġ2009": 2521,
      "uck": 2522,
      "ĠKing": 2523,
      "ĠÂ": 2524,
      "ĠJan": 2525,
      "nces": 2526,
      "Ġcontact": 2527,
      "Ġsurv": 2528,
      "iment": 2529,
      "Ġtaking": 2530,
      "ucle": 2531,
      "arily": 2532,
      "ival": 2533,
      "ze": 2534,
      "Ġrelative": 2535,
      "Ġago": 2536,
      "Ġaverage": 2537,
      "het": 2538,
      "Ġlonger": 2539,
      "Ġability": 2540,
      "ternal": 2541,
      "Ġstudent": 2542,
      "rapy": 2543,
      "ĠDo": 2544,
      "Ġmoney": 2545,
      "Ġrepl": 2546,
      "ief": 2547,
      "Ġrev": 2548,
      "Ġfactors": 2549,
      "hold": 2550,
      "eding": 2551,
      "Ġsett": 2552,
      "Ġexerc": 2553,
      "Ġstandard": 2554,
      "ĠAfter": 2555,
      "Ġmatter": 2556,
      "ĠCalif": 2557,
      "Ġaccept": 2558,
      "Ġbuilt": 2559,
      "Ġtrue": 2560,
      "amed": 2561,
      "Ġorigin": 2562,
      "ĠEm": 2563,
      "atives": 2564,
      "based": 2565,
      "Ġwild": 2566,
      "ropri": 2567,
      "Ġpoll": 2568,
      "Ġthroughout": 2569,
      "dom": 2570,
      "Ġaction": 2571,
      "erous": 2572,
      "uary": 2573,
      "rench": 2574,
      "ĠMin": 2575,
      "ĠPar": 2576,
      "usion": 2577,
      "Ġsense": 2578,
      "Ġled": 2579,
      "199": 2580,
      "ĠInstitute": 2581,
      "umb": 2582,
      "Ġfig": 2583,
      "Ġsat": 2584,
      "Ġgreater": 2585,
      "Ġprote": 2586,
      "ĠCount": 2587,
      "ening": 2588,
      "ĠSec": 2589,
      "Ġsubst": 2590,
      "onse": 2591,
      "Ġsuff": 2592,
      "Ġincreasing": 2593,
      "ns": 2594,
      "izing": 2595,
      "Ġnormal": 2596,
      "Ġtax": 2597,
      "Ġposition": 2598,
      "pect": 2599,
      "Ġterms": 2600,
      "Ġbehavior": 2601,
      "__": 2602,
      "bor": 2603,
      "Ġ=": 2604,
      "Ġfeet": 2605,
      "cies": 2606,
      "Ġens": 2607,
      "Ġgenerally": 2608,
      "Ġmanagement": 2609,
      "ĠJu": 2610,
      "Ġjob": 2611,
      "Ġconc": 2612,
      "Ġunderstanding": 2613,
      "ashington": 2614,
      "Ġopportun": 2615,
      "Ġlate": 2616,
      "25": 2617,
      "Ġpath": 2618,
      "ength": 2619,
      "ps": 2620,
      "Ġtar": 2621,
      "know": 2622,
      "imately": 2623,
      "duc": 2624,
      "vention": 2625,
      "IV": 2626,
      "eration": 2627,
      "Ġincludes": 2628,
      "Ġdesigned": 2629,
      "AT": 2630,
      "itation": 2631,
      "Ġimage": 2632,
      "ccording": 2633,
      "Ġspread": 2634,
      "ĠAug": 2635,
      "Ġoriginal": 2636,
      "ached": 2637,
      "new": 2638,
      "asc": 2639,
      "ĠEd": 2640,
      "Ġpattern": 2641,
      "Ġeffic": 2642,
      "Ġcat": 2643,
      "Ġapproach": 2644,
      "ornia": 2645,
      "rate": 2646,
      "Ġreview": 2647,
      "lex": 2648,
      "aging": 2649,
      "Ġscientific": 2650,
      "istance": 2651,
      "Ġsea": 2652,
      "Ġ24": 2653,
      "Ġpractice": 2654,
      "leep": 2655,
      "Ġassess": 2656,
      "Ġcarbon": 2657,
      "Ġnation": 2658,
      "Ġtheory": 2659,
      "ĠInf": 2660,
      "Ġstructure": 2661,
      "adem": 2662,
      "ĠSu": 2663,
      "ibrary": 2664,
      "Ġavoid": 2665,
      "anced": 2666,
      "Ġshall": 2667,
      "Ġviol": 2668,
      "Ġvisit": 2669,
      "You": 2670,
      "Ġ2007": 2671,
      "Ġforce": 2672,
      "ades": 2673,
      "Ġissue": 2674,
      "thern": 2675,
      "fully": 2676,
      "Ġprobably": 2677,
      "Ġthreat": 2678,
      "Ġproduced": 2679,
      "issions": 2680,
      "Ġbelieve": 2681,
      "rial": 2682,
      "Ġinternational": 2683,
      "pril": 2684,
      "Ġsoft": 2685,
      "Ġcauses": 2686,
      "osition": 2687,
      "Ġattempt": 2688,
      "Ġshown": 2689,
      "Ġthing": 2690,
      "Ġcivil": 2691,
      "Ġdeveloping": 2692,
      "Ġslow": 2693,
      "ronic": 2694,
      "Ġheat": 2695,
      "Ġsqu": 2696,
      "ĠServ": 2697,
      "Ġpopular": 2698,
      "Ġanalysis": 2699,
      "Ġcolor": 2700,
      "Ġsources": 2701,
      "ĠBo": 2702,
      "Ġcoun": 2703,
      "www": 2704,
      "Ġofficial": 2705,
      "Ġpoor": 2706,
      "ĠAustral": 2707,
      "Ġbab": 2708,
      "ising": 2709,
      "Ġtalk": 2710,
      "istics": 2711,
      "useum": 2712,
      "Ġdou": 2713,
      "Ġuses": 2714,
      "Ġmagn": 2715,
      "Ġreading": 2716,
      "Ġindustry": 2717,
      "ille": 2718,
      "Ġonline": 2719,
      "hern": 2720,
      "Ġsou": 2721,
      "Ġremov": 2722,
      "Ġcomes": 2723,
      "Ġfem": 2724,
      "aving": 2725,
      "Ġinj": 2726,
      "Ġmilitary": 2727,
      "Ġseries": 2728,
      "Ġsociety": 2729,
      "Ġdispl": 2730,
      "Ġut": 2731,
      "ĠPress": 2732,
      "ĠFran": 2733,
      "Ġestim": 2734,
      "Ġforms": 2735,
      "Ġpersonal": 2736,
      "uth": 2737,
      "Ġcontent": 2738,
      "ĠCalifornia": 2739,
      "cean": 2740,
      "Ġinvolved": 2741,
      "Ġvari": 2742,
      "Ġevents": 2743,
      "On": 2744,
      "Ġrelationship": 2745,
      "amb": 2746,
      "Ġtown": 2747,
      "Ġparticularly": 2748,
      "irit": 2749,
      "Ġwritten": 2750,
      "Ġincluded": 2751,
      "yle": 2752,
      "isions": 2753,
      "Ġce": 2754,
      "IN": 2755,
      "Ġindividuals": 2756,
      "oly": 2757,
      "Ġbirth": 2758,
      "Ġpolicy": 2759,
      "Ġcontain": 2760,
      "light": 2761,
      "lease": 2762,
      "inks": 2763,
      "raft": 2764,
      "ON": 2765,
      "Ġpict": 2766,
      "Ġserious": 2767,
      "Ġmechan": 2768,
      "Ġbreak": 2769,
      "Ġmother": 2770,
      "ctions": 2771,
      "ĠPart": 2772,
      "ĠMarch": 2773,
      "ĠWest": 2774,
      "Ġdemon": 2775,
      "ĠDav": 2776,
      "Ġlog": 2777,
      "haps": 2778,
      "Ġtraining": 2779,
      "Ġstop": 2780,
      "Ġdeep": 2781,
      "ĠPre": 2782,
      "Ġattack": 2783,
      "ĠWashington": 2784,
      "Ġtemperature": 2785,
      "ĠChina": 2786,
      "erson": 2787,
      "Ġwhose": 2788,
      "Ġheld": 2789,
      "ressed": 2790,
      "Ġmovement": 2791,
      "rew": 2792,
      "ĠPer": 2793,
      "Ġexc": 2794,
      "ĠJune": 2795,
      "Ġthous": 2796,
      "Ġlabor": 2797,
      "Ġestablished": 2798,
      "ecause": 2799,
      "Ġoutside": 2800,
      "oles": 2801,
      "osure": 2802,
      "Ġearl": 2803,
      "Ġsimply": 2804,
      "Ġhealthy": 2805,
      "Ġste": 2806,
      "ĠEl": 2807,
      "ancy": 2808,
      "ided": 2809,
      "Ġrefer": 2810,
      "ĠRet": 2811,
      "ĠAssoci": 2812,
      "Ġnumbers": 2813,
      "abetes": 2814,
      "Ġbring": 2815,
      "ĠOct": 2816,
      "rim": 2817,
      "ony": 2818,
      "ĠMany": 2819,
      "ban": 2820,
      "Ġinstit": 2821,
      "Ġdiv": 2822,
      "Ġvariety": 2823,
      "stitution": 2824,
      "Ġwarm": 2825,
      "Ġir": 2826,
      "Ġvacc": 2827,
      "Ġalthough": 2828,
      "Ġemb": 2829,
      "aily": 2830,
      "ius": 2831,
      "ads": 2832,
      "Ġcheck": 2833,
      "Ġprec": 2834,
      "see": 2835,
      "Ġthus": 2836,
      "rig": 2837,
      "Ġpsych": 2838,
      "Ġcompet": 2839,
      "wise": 2840,
      "verse": 2841,
      "ography": 2842,
      "orthern": 2843,
      "Ġanimal": 2844,
      "Ġlives": 2845,
      "reng": 2846,
      "Ġskills": 2847,
      "where": 2848,
      "aches": 2849,
      "Ġimplement": 2850,
      "undred": 2851,
      "rand": 2852,
      "ĠCons": 2853,
      "Ġelectric": 2854,
      "Ġwebs": 2855,
      "ulated": 2856,
      "ĠMe": 2857,
      "Ġencoura": 2858,
      "Ġx": 2859,
      "ino": 2860,
      "ulate": 2861,
      "ift": 2862,
      "ners": 2863,
      "Ġmusic": 2864,
      "Ġdamage": 2865,
      "Ġfa": 2866,
      "Ġtarget": 2867,
      "ĠWhile": 2868,
      "Ġrespect": 2869,
      "ufact": 2870,
      "Ġface": 2871,
      "gar": 2872,
      "ĠFrench": 2873,
      "Ġclean": 2874,
      "ĠInternational": 2875,
      "Ġkids": 2876,
      "gn": 2877,
      "Ġbasic": 2878,
      "Ġselect": 2879,
      "Ġinteg": 2880,
      "Ġinteract": 2881,
      "Ġap": 2882,
      "ĠRiver": 2883,
      "Ġdocument": 2884,
      "ension": 2885,
      "ilos": 2886,
      "ĠQu": 2887,
      "Ġbacter": 2888,
      "rast": 2889,
      "ror": 2890,
      "Ġcit": 2891,
      "ribution": 2892,
      "Ġregular": 2893,
      "Ġ40": 2894,
      "Ġeth": 2895,
      "ĠGl": 2896,
      "Ġconsist": 2897,
      "OR": 2898,
      "ĠEduc": 2899,
      "oor": 2900,
      "Ġextreme": 2901,
      "Ġsevere": 2902,
      "Ġaffect": 2903,
      "Ġresponse": 2904,
      "ĠRec": 2905,
      "Ġwood": 2906,
      "ĠChurch": 2907,
      "Ġnorth": 2908,
      "ĠEuropean": 2909,
      "Ġinvestig": 2910,
      "ĠApp": 2911,
      "rs": 2912,
      "Ġnight": 2913,
      "ĠCong": 2914,
      "IS": 2915,
      "Ġexcept": 2916,
      "Ġindepend": 2917,
      "Ġstri": 2918,
      "Ġmeaning": 2919,
      "Ġmess": 2920,
      "ĠMost": 2921,
      "ĠProg": 2922,
      "Ġfru": 2923,
      "ĠSept": 2924,
      "ls": 2925,
      "Ġappl": 2926,
      "con": 2927,
      "\",": 2928,
      "ĠOther": 2929,
      "itude": 2930,
      "Ġeat": 2931,
      "overy": 2932,
      "rance": 2933,
      "ĠGerman": 2934,
      "Ġcontinue": 2935,
      "Ġcompany": 2936,
      "AN": 2937,
      "ĠChild": 2938,
      "term": 2939,
      "Ġmiles": 2940,
      "Ġtend": 2941,
      "Ġcapt": 2942,
      "ĠAugust": 2943,
      "Ġdecl": 2944,
      "Ġfamilies": 2945,
      "Ġvirus": 2946,
      "Ġreligious": 2947,
      "Ġwent": 2948,
      "lim": 2949,
      "elling": 2950,
      "ĠIndian": 2951,
      "He": 2952,
      "uman": 2953,
      "den": 2954,
      "olec": 2955,
      "Ġtests": 2956,
      "Ġmount": 2957,
      "Ġattention": 2958,
      "Ġadded": 2959,
      "ĠJuly": 2960,
      "erg": 2961,
      "ĠApril": 2962,
      "Ġgrowing": 2963,
      "ĠPresident": 2964,
      "Ġappropri": 2965,
      "Ġthird": 2966,
      "Ġlarger": 2967,
      "edia": 2968,
      "ĠAc": 2969,
      "Ġbroad": 2970,
      "ama": 2971,
      "Ġlack": 2972,
      "Ġnearly": 2973,
      "Ġsust": 2974,
      "Ġdefin": 2975,
      "Ġculture": 2976,
      "Ġ/": 2977,
      "Ġdraw": 2978,
      "Ġtherefore": 2979,
      "Ġprint": 2980,
      "Ġimmedi": 2981,
      "year": 2982,
      "Ġsafe": 2983,
      "ĠBar": 2984,
      "Ġprivate": 2985,
      "Ġbooks": 2986,
      "Ġsold": 2987,
      "ĠHer": 2988,
      "Ġsearch": 2989,
      "Ġetc": 2990,
      "ground": 2991,
      "ĠInc": 2992,
      "ĠMore": 2993,
      "Ġcompon": 2994,
      "Ġmethods": 2995,
      "ĠHistory": 2996,
      "Ġinstead": 2997,
      "eal": 2998,
      "Ġwall": 2999,
      "Ġdetermine": 3000,
      "rote": 3001,
      "ellow": 3002,
      "Ġproced": 3003,
      "Ġfav": 3004,
      "ĠAfrica": 3005,
      "Ġinfection": 3006,
      "ises": 3007,
      "Ġcover": 3008,
      "Ġhor": 3009,
      "Ġadditional": 3010,
      "aul": 3011,
      "Ġmach": 3012,
      "ĠNA": 3013,
      "ĠAmericans": 3014,
      "Ġsil": 3015,
      "astic": 3016,
      "IC": 3017,
      "ana": 3018,
      "Ġlargest": 3019,
      "set": 3020,
      "Ġleaders": 3021,
      "ĠSm": 3022,
      "Ġdoing": 3023,
      "elt": 3024,
      "uge": 3025,
      "Ġord": 3026,
      "Ġcompan": 3027,
      "Ġstreng": 3028,
      "Ġnucle": 3029,
      "Ġreceived": 3030,
      "reek": 3031,
      "Ġcentral": 3032,
      "Ġcoast": 3033,
      "Ġconcent": 3034,
      "ĠAfrican": 3035,
      "iers": 3036,
      "uk": 3037,
      "oes": 3038,
      "Ġtur": 3039,
      "Ġsoon": 3040,
      "ĠChar": 3041,
      "Ġprimary": 3042,
      "Ġperm": 3043,
      "Ġfront": 3044,
      "22": 3045,
      "Ġeval": 3046,
      "Ġsouth": 3047,
      "Ġhundred": 3048,
      "Ġfoods": 3049,
      "Ġsites": 3050,
      "Ġvide": 3051,
      "Ġeasy": 3052,
      "ĠIS": 3053,
      "cember": 3054,
      "ĠFeb": 3055,
      "Ġseems": 3056,
      "ription": 3057,
      "Ġquite": 3058,
      "Ġteachers": 3059,
      "Ġpoints": 3060,
      "hel": 3061,
      "ĠWilliam": 3062,
      "Ġdog": 3063,
      "Ġsafety": 3064,
      "ĠAnt": 3065,
      "Ġi": 3066,
      "cell": 3067,
      "Ġ21": 3068,
      "imum": 3069,
      "Ġwriting": 3070,
      "Ġsleep": 3071,
      "80": 3072,
      "ev": 3073,
      "Ġtakes": 3074,
      "40": 3075,
      "Ġsection": 3076,
      "osing": 3077,
      "Ġbr": 3078,
      "Ġshare": 3079,
      "Ġrates": 3080,
      "ields": 3081,
      "Ġhimself": 3082,
      "Ġreve": 3083,
      "Ġidentify": 3084,
      "Ġcross": 3085,
      "Ġadminist": 3086,
      "ĠRuss": 3087,
      "Ġfuel": 3088,
      "Ġbeginning": 3089,
      "Ġbenefits": 3090,
      "pper": 3091,
      "ternet": 3092,
      "enced": 3093,
      "Ġspeed": 3094,
      "Ġdescribed": 3095,
      "Ġ2006": 3096,
      "ĠGovern": 3097,
      "omb": 3098,
      "ĠMc": 3099,
      "ovember": 3100,
      "Ġdeal": 3101,
      "Ġprep": 3102,
      "Ġdirectly": 3103,
      "ĠChristian": 3104,
      "60": 3105,
      "rieved": 3106,
      "Ġtree": 3107,
      "Ġhumans": 3108,
      "Ġrare": 3109,
      "pe": 3110,
      "Ġobt": 3111,
      ");": 3112,
      "ounds": 3113,
      "Ġcommunities": 3114,
      "Ġmanufact": 3115,
      "Ġox": 3116,
      "Ġnews": 3117,
      "Ġhabit": 3118,
      "ĠJewish": 3119,
      "Ġstress": 3120,
      "Ġaltern": 3121,
      "Ġtiss": 3122,
      "Ġhar": 3123,
      "ulf": 3124,
      "life": 3125,
      "itis": 3126,
      "rab": 3127,
      "mosp": 3128,
      "omet": 3129,
      "Ġbase": 3130,
      "Ġactive": 3131,
      "Ġcorrect": 3132,
      "Ġefforts": 3133,
      "ems": 3134,
      "aly": 3135,
      "lam": 3136,
      "PA": 3137,
      "anks": 3138,
      "Ġdang": 3139,
      "oming": 3140,
      "Ġtrees": 3141,
      "Ġfederal": 3142,
      "Ġreflect": 3143,
      "ĠMon": 3144,
      "ĠJanuary": 3145,
      "Ġcommand": 3146,
      "Ġborn": 3147,
      "ceed": 3148,
      "Ġtraditional": 3149,
      "Ġbrought": 3150,
      "Ġsolar": 3151,
      "ying": 3152,
      "ext": 3153,
      "inical": 3154,
      "Ġhost": 3155,
      "exic": 3156,
      "Ġpatient": 3157,
      "estic": 3158,
      "Ġimages": 3159,
      "inct": 3160,
      "Ġdied": 3161,
      "Ġveget": 3162,
      "lation": 3163,
      "ĠAlthough": 3164,
      "Ġperformance": 3165,
      "Ġdoesn": 3166,
      "ĠCor": 3167,
      "Ġlove": 3168,
      "ĠIndia": 3169,
      "Ġbott": 3170,
      "ĠSw": 3171,
      "Ġlength": 3172,
      "Ġideas": 3173,
      "Ġevolution": 3174,
      "Ġnetwork": 3175,
      "uments": 3176,
      "And": 3177,
      "na": 3178,
      "Ġ2013": 3179,
      "Ġdemonstr": 3180,
      "ĠMus": 3181,
      "Ġice": 3182,
      "Ġrout": 3183,
      "Ġmicro": 3184,
      "aces": 3185,
      "rael": 3186,
      "Ġgetting": 3187,
      "hest": 3188,
      "Ġcompared": 3189,
      "Ġhyd": 3190,
      "oke": 3191,
      "ĠReg": 3192,
      "Ġdrink": 3193,
      "isms": 3194,
      "EN": 3195,
      "urg": 3196,
      "Ġdecre": 3197,
      "Ġpregn": 3198,
      "Ġson": 3199,
      "Ġ2005": 3200,
      "Ġpan": 3201,
      "ĠInt": 3202,
      "Ġlimited": 3203,
      "Ġelse": 3204,
      "iency": 3205,
      "ĠTra": 3206,
      "ming": 3207,
      "Ġprogress": 3208,
      "Ġsal": 3209,
      "Ġworkers": 3210,
      "yond": 3211,
      "Ġhot": 3212,
      "iles": 3213,
      "used": 3214,
      "Ġfather": 3215,
      "Ġlost": 3216,
      "Ġlands": 3217,
      "Ġharm": 3218,
      "Ġdisp": 3219,
      "23": 3220,
      "ĠCounty": 3221,
      "ha": 3222,
      "Ġwa": 3223,
      "room": 3224,
      "ĠSeptember": 3225,
      "Ġlif": 3226,
      "asons": 3227,
      "bit": 3228,
      "24": 3229,
      "Ġdrugs": 3230,
      "Ġpp": 3231,
      "Ġbal": 3232,
      "Ġprior": 3233,
      "Ġhy": 3234,
      "can": 3235,
      "Ġagricult": 3236,
      "alled": 3237,
      "Ġformer": 3238,
      "ĠPol": 3239,
      "men": 3240,
      "Ġadop": 3241,
      "Ġpositive": 3242,
      "ĠUs": 3243,
      "Ġtold": 3244,
      "ridge": 3245,
      "Ġcollection": 3246,
      "Ġhighly": 3247,
      "Ġweeks": 3248,
      "Ġunc": 3249,
      "ospital": 3250,
      "Ġeye": 3251,
      "Ġmill": 3252,
      "Ġstarted": 3253,
      "Ġquickly": 3254,
      "ĠSociety": 3255,
      "water": 3256,
      "itte": 3257,
      "Ġwrote": 3258,
      "Ġcontains": 3259,
      "ruary": 3260,
      "ĠEngland": 3261,
      "Ġdiseases": 3262,
      "Ġfoot": 3263,
      "Ġcarry": 3264,
      "Ġarm": 3265,
      "Ġadults": 3266,
      "uries": 3267,
      "ondon": 3268,
      "hens": 3269,
      "ĠCanada": 3270,
      "mar": 3271,
      "Ġleading": 3272,
      "izations": 3273,
      "Ġcenter": 3274,
      "Ġang": 3275,
      "Ġinside": 3276,
      "Ġmemory": 3277,
      "Ġtools": 3278,
      "wo": 3279,
      "ĠMedic": 3280,
      "ĠWeb": 3281,
      "ĠOctober": 3282,
      "ously": 3283,
      "Ġrock": 3284,
      "Ġ,": 3285,
      "ĠCity": 3286,
      "Ġult": 3287,
      "cks": 3288,
      "Ġcontribut": 3289,
      "Ġcommer": 3290,
      "oma": 3291,
      "Ġagree": 3292,
      "Ġspeak": 3293,
      "Ġcred": 3294,
      "Ġdifference": 3295,
      "Ġbehind": 3296,
      "Ġremain": 3297,
      "rag": 3298,
      "Ġ23": 3299,
      "Ġuseful": 3300,
      "Ġeasily": 3301,
      "Ġarri": 3302,
      "ĠJournal": 3303,
      "Ġlocated": 3304,
      "Ġhands": 3305,
      "inese": 3306,
      "Ġestablish": 3307,
      "One": 3308,
      "Ġwid": 3309,
      "ford": 3310,
      "ĠArt": 3311,
      "ĠRetrieved": 3312,
      "Ġinterp": 3313,
      "ĠMexic": 3314,
      "istry": 3315,
      "apter": 3316,
      "ĠJews": 3317,
      "Ġaware": 3318,
      "ED": 3319,
      "Ġcalc": 3320,
      "Ġmid": 3321,
      "ĠAssociation": 3322,
      "Ġseason": 3323,
      "vest": 3324,
      "arr": 3325,
      "coh": 3326,
      "ĠVir": 3327,
      "Ġwebsite": 3328,
      "leb": 3329,
      "Ġanswer": 3330,
      "Ġbit": 3331,
      "Ġolder": 3332,
      "Ġrapid": 3333,
      "Ġdaily": 3334,
      "Ġrecently": 3335,
      "ils": 3336,
      "encies": 3337,
      "Ġlooking": 3338,
      "Ġtransport": 3339,
      "gery": 3340,
      "ĠUnion": 3341,
      "Ġremains": 3342,
      "ĠCongress": 3343,
      "Ġgradu": 3344,
      "Ġlaws": 3345,
      "anish": 3346,
      "Ġdry": 3347,
      "Ġexercise": 3348,
      "ĠEc": 3349,
      "Ġdiabetes": 3350,
      "Ġvalues": 3351,
      "Ġbillion": 3352,
      "Ġproperty": 3353,
      "head": 3354,
      "Ġgot": 3355,
      "ĠCoun": 3356,
      "Ġsomeone": 3357,
      "Ġlines": 3358,
      "Ġancient": 3359,
      "Ġcust": 3360,
      "Ġpack": 3361,
      "Ġobjects": 3362,
      "Ġquant": 3363,
      "ĠDecember": 3364,
      "iot": 3365,
      "inated": 3366,
      "Ġcard": 3367,
      "ĠJes": 3368,
      "idents": 3369,
      "ĠSan": 3370,
      "Ġtransm": 3371,
      "ĠGreat": 3372,
      "Ġoffer": 3373,
      "itch": 3374,
      "Ġnothing": 3375,
      "Ġfile": 3376,
      "Ġjud": 3377,
      "Ġplaces": 3378,
      "ĠNot": 3379,
      "Ġfeatures": 3380,
      "ĠOf": 3381,
      "Ġcrop": 3382,
      "ĠIsrael": 3383,
      "Ġjo": 3384,
      "ham": 3385,
      "fficient": 3386,
      "Ġextra": 3387,
      "Ġsupply": 3388,
      "By": 3389,
      "ĠYour": 3390,
      "Ġ193": 3391,
      "Ġforces": 3392,
      "ĠGeneral": 3393,
      "orks": 3394,
      "Ġ22": 3395,
      "Ġder": 3396,
      "Ġ195": 3397,
      "fect": 3398,
      "Ġoccup": 3399,
      "Ġmolec": 3400,
      "ties": 3401,
      "odies": 3402,
      "iber": 3403,
      "Ġfollowed": 3404,
      "Ġapplication": 3405,
      "Ġdark": 3406,
      "Ġ2000": 3407,
      "Ġvit": 3408,
      "ĠNovember": 3409,
      "Ġsaw": 3410,
      "Ġcapital": 3411,
      "Ġmedia": 3412,
      "ĠEast": 3413,
      "aid": 3414,
      "Ġprotection": 3415,
      "Ġfram": 3416,
      "Ġsummer": 3417,
      "bl": 3418,
      "At": 3419,
      "Ġappropriate": 3420,
      "sect": 3421,
      "Ġdead": 3422,
      "ĠFirst": 3423,
      "Ġachieve": 3424,
      "AS": 3425,
      "Ġast": 3426,
      "oe": 3427,
      "ĠHIV": 3428,
      "Ġcitiz": 3429,
      "Ġfight": 3430,
      "Ġund": 3431,
      "Ġtrade": 3432,
      "Ġwalk": 3433,
      "ĠArch": 3434,
      "Ġgenetic": 3435,
      "rition": 3436,
      "ĠSch": 3437,
      "Ġcontinued": 3438,
      "lin": 3439,
      "itting": 3440,
      "Ġbreast": 3441,
      "Ġcode": 3442,
      "Ġasked": 3443,
      "uff": 3444,
      "Ġten": 3445,
      "Ġfeed": 3446,
      "Ġbirds": 3447,
      "rees": 3448,
      "Ġunique": 3449,
      "Ġallows": 3450,
      "Ġcritical": 3451,
      "Ġdecision": 3452,
      "aters": 3453,
      "Ġprinc": 3454,
      "ĠEducation": 3455,
      "Ġprojects": 3456,
      "king": 3457,
      "arian": 3458,
      "Ġbasis": 3459,
      "Ġelements": 3460,
      "Ġexact": 3461,
      "Ġeconomy": 3462,
      "Ġcool": 3463,
      "Ġstandards": 3464,
      "ĠPark": 3465,
      "Ġfinan": 3466,
      "âĢ¢": 3467,
      "Ġchalleng": 3468,
      "iques": 3469,
      "IT": 3470,
      "Ġvict": 3471,
      "AC": 3472,
      "Ġhous": 3473,
      "Ġspirit": 3474,
      "Ġdemand": 3475,
      "Ġep": 3476,
      "Ġinstru": 3477,
      "Ġrespond": 3478,
      "ĠSur": 3479,
      "ĠFrom": 3480,
      "Ġpurpose": 3481,
      "Ġadj": 3482,
      "ought": 3483,
      "Ġinfluence": 3484,
      "raw": 3485,
      "Ġearlier": 3486,
      "Ġcolon": 3487,
      "Ġcorn": 3488,
      "Ġatmosp": 3489,
      "ocr": 3490,
      "Ġcompanies": 3491,
      "airs": 3492,
      "ipment": 3493,
      "ingu": 3494,
      "Ġmember": 3495,
      "Ġcosts": 3496,
      "Ġanti": 3497,
      "Ġminutes": 3498,
      "Ġstay": 3499,
      "ste": 3500,
      "Ġking": 3501,
      "orge": 3502,
      "Ġexposure": 3503,
      "Ġmom": 3504,
      "racy": 3505,
      "Ġmultiple": 3506,
      "equ": 3507,
      "ĠPhil": 3508,
      "ĠLaw": 3509,
      "ari": 3510,
      "Ġdate": 3511,
      "wide": 3512,
      "ĠChinese": 3513,
      "Ġmiddle": 3514,
      "Ġweather": 3515,
      "Ġbad": 3516,
      "Ġexpected": 3517,
      "Ġsn": 3518,
      "âĢ¦": 3519,
      "Ġden": 3520,
      "aught": 3521,
      "Ġgoal": 3522,
      "ĠHouse": 3523,
      "Ġpen": 3524,
      "Ġfast": 3525,
      "ica": 3526,
      "ĠSystem": 3527,
      "Ġformed": 3528,
      "inate": 3529,
      "Ġeight": 3530,
      "Ġreceive": 3531,
      "Ġscreen": 3532,
      "Ġhyp": 3533,
      "che": 3534,
      "Ġbeg": 3535,
      "ĠCour": 3536,
      "ilosoph": 3537,
      "roy": 3538,
      "rogen": 3539,
      "Ġsustain": 3540,
      "70": 3541,
      "Ġaud": 3542,
      "Ġones": 3543,
      "ĠDevelop": 3544,
      "Ġtherapy": 3545,
      "Ġacid": 3546,
      "ula": 3547,
      "Ġsituation": 3548,
      "Ġcapac": 3549,
      "Ġoccurs": 3550,
      "Ġrequires": 3551,
      "Ġnamed": 3552,
      "Ġcopy": 3553,
      "Ġasp": 3554,
      "Ġplanet": 3555,
      "29": 3556,
      "atric": 3557,
      "ĠDavid": 3558,
      "ĠCommun": 3559,
      "ixed": 3560,
      "nes": 3561,
      "ĠLondon": 3562,
      "ĠDis": 3563,
      "ĠRoman": 3564,
      "Ġexpect": 3565,
      "Ġlegal": 3566,
      "entially": 3567,
      "Ġsurround": 3568,
      "Ġsequ": 3569,
      "Ġprocesses": 3570,
      "ologies": 3571,
      "Ġensure": 3572,
      "cohol": 3573,
      "Ġappears": 3574,
      "unch": 3575,
      "ittee": 3576,
      "Ġbul": 3577,
      "Ġdiscovered": 3578,
      "Ġapprox": 3579,
      "ĠConf": 3580,
      "hemat": 3581,
      "Ġalone": 3582,
      "Ġplaced": 3583,
      "aced": 3584,
      "Ġsecurity": 3585,
      "ĠEnvironment": 3586,
      "atur": 3587,
      "Ġradiation": 3588,
      "Ġ60": 3589,
      "ĠMy": 3590,
      "Ġbaby": 3591,
      "Ġroom": 3592,
      "Ġegg": 3593,
      "Ġadapt": 3594,
      "Ġpredict": 3595,
      "ĠFebruary": 3596,
      "Ġweb": 3597,
      "craft": 3598,
      "rest": 3599,
      "Ġimportance": 3600,
      "Ġneigh": 3601,
      "atin": 3602,
      "Ġbeyond": 3603,
      "Ġelectr": 3604,
      "Ġtesting": 3605,
      "Ġcurrently": 3606,
      "Ġveh": 3607,
      "ĠKe": 3608,
      "Ġperhaps": 3609,
      "Ġteaching": 3610,
      "Ġreach": 3611,
      "off": 3612,
      "Ġfinal": 3613,
      "Ġchurch": 3614,
      "Ġsoftware": 3615,
      "ype": 3616,
      "Ġresponsible": 3617,
      "izes": 3618,
      "Ġexec": 3619,
      "edom": 3620,
      "Ġanything": 3621,
      "Ġeyes": 3622,
      "ĠCouncil": 3623,
      "Ġessential": 3624,
      "nov": 3625,
      "Ġrain": 3626,
      "ĠProgram": 3627,
      "Ġeffort": 3628,
      "house": 3629,
      "Ġtable": 3630,
      "omas": 3631,
      "ĠTechn": 3632,
      "ĠRo": 3633,
      "Ġsmaller": 3634,
      "Ġcold": 3635,
      "ĠRed": 3636,
      "Ġbecomes": 3637,
      "ĠDay": 3638,
      "Ex": 3639,
      "Ġtit": 3640,
      "Ġversion": 3641,
      "So": 3642,
      "Ġmonitor": 3643,
      "come": 3644,
      "Ġhelps": 3645,
      "Ġforeign": 3646,
      "joy": 3647,
      "Ġmission": 3648,
      "ky": 3649,
      "26": 3650,
      "28": 3651,
      "Ġfriends": 3652,
      "Ġaim": 3653,
      "Ġsymb": 3654,
      "bre": 3655,
      "ests": 3656,
      "ara": 3657,
      "ĠHigh": 3658,
      "time": 3659,
      "Ġmention": 3660,
      "Ġwoman": 3661,
      "ĠMich": 3662,
      "Ġbacteria": 3663,
      "Ġprotein": 3664,
      "aign": 3665,
      "Ġmeasures": 3666,
      "Ġcontinu": 3667,
      "Ġ28": 3668,
      "DA": 3669,
      "Ġdisplay": 3670,
      "ĠBi": 3671,
      "Ġgives": 3672,
      "Ġallowed": 3673,
      "Ġcourt": 3674,
      "Ġanaly": 3675,
      "27": 3676,
      "Ġ26": 3677,
      "Ġstrateg": 3678,
      "Ġpet": 3679,
      "Ġhope": 3680,
      "Ġcou": 3681,
      "ald": 3682,
      "sec": 3683,
      "Ġblock": 3684,
      "ĠCath": 3685,
      "resp": 3686,
      "Ġcultural": 3687,
      "Ġdegree": 3688,
      "Ġhon": 3689,
      "iece": 3690,
      "Ġwaste": 3691,
      "known": 3692,
      "Ġmig": 3693,
      "These": 3694,
      "aint": 3695,
      "Ġsch": 3696,
      "oring": 3697,
      "illing": 3698,
      "Ġaffected": 3699,
      "Ġgave": 3700,
      "Ġwinter": 3701,
      "ender": 3702,
      "Ġstru": 3703,
      "Ġvideo": 3704,
      "Ġcontroll": 3705,
      "Ġpresident": 3706,
      "ĠDNA": 3707,
      "resh": 3708,
      "Ġrecommend": 3709,
      "ĠCO": 3710,
      "Ġequipment": 3711,
      "Ġmental": 3712,
      "Ġguid": 3713,
      "ĠVol": 3714,
      "oted": 3715,
      "Ġreports": 3716,
      "Ġtele": 3717,
      "Ġacqu": 3718,
      "imal": 3719,
      "ĠUN": 3720,
      "Ġ2004": 3721,
      "Ġconstruction": 3722,
      "ully": 3723,
      "ĠProt": 3724,
      "vant": 3725,
      "Ġdepend": 3726,
      "ĠProf": 3727,
      "ĠJesus": 3728,
      "ĠGreen": 3729,
      "vert": 3730,
      "iar": 3731,
      "Ġtypically": 3732,
      "ologist": 3733,
      "ĠSpec": 3734,
      "Ġ190": 3735,
      "more": 3736,
      "erved": 3737,
      "olar": 3738,
      "Ġnames": 3739,
      "amer": 3740,
      "ciples": 3741,
      "Ġemissions": 3742,
      "Ġ27": 3743,
      "Ġlocation": 3744,
      "ribute": 3745,
      "Ġidentified": 3746,
      "su": 3747,
      "atab": 3748,
      "Ġgard": 3749,
      "Ġ...": 3750,
      "Ġrise": 3751,
      "Ġriver": 3752,
      "cles": 3753,
      "Some": 3754,
      "orms": 3755,
      "AL": 3756,
      "Ġemot": 3757,
      "Ġwrite": 3758,
      "osa": 3759,
      "Ġillness": 3760,
      "ĠPublic": 3761,
      "Ġapplications": 3762,
      "ords": 3763,
      "Pro": 3764,
      "book": 3765,
      "21": 3766,
      "Ġcop": 3767,
      "iest": 3768,
      "ĠMuseum": 3769,
      "Ġrule": 3770,
      "ĠFrance": 3771,
      "oud": 3772,
      "Ġfear": 3773,
      "Ġreduced": 3774,
      "ĠWestern": 3775,
      "Ġsusp": 3776,
      "Ġgame": 3777,
      "Ġstatus": 3778,
      "enty": 3779,
      "fort": 3780,
      "Ġbreat": 3781,
      "Ġproviding": 3782,
      "ector": 3783,
      "Ġrecords": 3784,
      "asion": 3785,
      "rief": 3786,
      "Ġpassed": 3787,
      "Ġtechniques": 3788,
      "ĠSee": 3789,
      "oday": 3790,
      "Ġconsequ": 3791,
      "Ġsuccessful": 3792,
      "Ġball": 3793,
      "aled": 3794,
      "rant": 3795,
      "odes": 3796,
      "Ġvirt": 3797,
      "reet": 3798,
      "Ġregions": 3799,
      "Ġfindings": 3800,
      "irection": 3801,
      "Ġgold": 3802,
      "Ġwon": 3803,
      "Ġeating": 3804,
      "Ġrelatively": 3805,
      "Ġscale": 3806,
      "xic": 3807,
      "ĠMary": 3808,
      "BN": 3809,
      "Ġenter": 3810,
      "ĠVal": 3811,
      "Ġleave": 3812,
      "Ġsurvey": 3813,
      "ĠDuring": 3814,
      "Un": 3815,
      "Ġcities": 3816,
      "Ġstage": 3817,
      "ĠEven": 3818,
      "ibly": 3819,
      "Ġshowed": 3820,
      "Ġswe": 3821,
      "ĠNASA": 3822,
      "Ġadvant": 3823,
      "ĠMedical": 3824,
      "Ġuser": 3825,
      "Ġsolution": 3826,
      "Ġimag": 3827,
      "cont": 3828,
      "Ġmajority": 3829,
      "back": 3830,
      "Ġrules": 3831,
      "Ġorganization": 3832,
      "Ġ2003": 3833,
      "Ġthinking": 3834,
      "ĠRober": 3835,
      "'ve": 3836,
      "ĠAccording": 3837,
      "Ġgoes": 3838,
      "gypt": 3839,
      "Ġworked": 3840,
      "Ġillust": 3841,
      "Ġhistorical": 3842,
      "II": 3843,
      "Ġfair": 3844,
      "ĠCur": 3845,
      "Ġoffice": 3846,
      "ocks": 3847,
      "Ġequal": 3848,
      "Ġmut": 3849,
      "Ġapplied": 3850,
      "gency": 3851,
      "ĠAustralia": 3852,
      "Ġnuclear": 3853,
      "Ġchanged": 3854,
      "ĠSince": 3855,
      "ĠBecause": 3856,
      "Ġtowards": 3857,
      "iny": 3858,
      "ĠCollege": 3859,
      "Ġnegative": 3860,
      "Ġantib": 3861,
      "Ġdifferences": 3862,
      "nam": 3863,
      "Ġcompar": 3864,
      "Ġtreated": 3865,
      "Ġmedicine": 3866,
      "ĠService": 3867,
      "Ġstar": 3868,
      "Ġenjoy": 3869,
      "Ġconflic": 3870,
      "Ġsugar": 3871,
      "Ġdevice": 3872,
      "Ġlat": 3873,
      "cast": 3874,
      "ago": 3875,
      "Ġvill": 3876,
      "ĠJames": 3877,
      "ĠInternet": 3878,
      "ĠMor": 3879,
      "phas": 3880,
      "ĠTrans": 3881,
      "Ġassum": 3882,
      "Ġmoved": 3883,
      "Ġleaves": 3884,
      "pped": 3885,
      "Ġprice": 3886,
      "Ġpurch": 3887,
      "Ġcompletely": 3888,
      "EC": 3889,
      "'ll": 3890,
      "eff": 3891,
      "Ġbenefit": 3892,
      "Ġceleb": 3893,
      "hors": 3894,
      "ĠAng": 3895,
      "Ġinteresting": 3896,
      "win": 3897,
      "itable": 3898,
      "Ġlegis": 3899,
      "Ġmiss": 3900,
      "Ġsuggests": 3901,
      "edic": 3902,
      "ken": 3903,
      "Ġdevices": 3904,
      "itect": 3905,
      "Ġsurgery": 3906,
      "Ġmodels": 3907,
      "ologists": 3908,
      "ensity": 3909,
      "ĠThen": 3910,
      "rome": 3911,
      "Ġeducational": 3912,
      "Ġreasons": 3913,
      "Ġprofessional": 3914,
      "Ġexpand": 3915,
      "Ġfinancial": 3916,
      "Ġtrying": 3917,
      "ĠAv": 3918,
      "cious": 3919,
      "eech": 3920,
      "Ġthousands": 3921,
      "ĠCom": 3922,
      "Ġjoint": 3923,
      "Ġbelief": 3924,
      "Ġcoming": 3925,
      "ession": 3926,
      "ST": 3927,
      "ding": 3928,
      "Ġcateg": 3929,
      "icip": 3930,
      "load": 3931,
      "Ġtrack": 3932,
      "oration": 3933,
      "ĠGermany": 3934,
      "Ġbone": 3935,
      "Ġ2001": 3936,
      "ĠTex": 3937,
      "ĠSim": 3938,
      "Ġpeace": 3939,
      "With": 3940,
      "Ġlimit": 3941,
      "Ġgir": 3942,
      "ĠRef": 3943,
      "Ġcommercial": 3944,
      "semb": 3945,
      "ĠOff": 3946,
      "Ġmis": 3947,
      "Ġexhib": 3948,
      "Ġdisorder": 3949,
      "ĠBlack": 3950,
      "Ar": 3951,
      "ĠAlso": 3952,
      "ĠHuman": 3953,
      "ira": 3954,
      "Ġ186": 3955,
      "ĠMiss": 3956,
      "related": 3957,
      "90": 3958,
      "Ġcommonly": 3959,
      "ett": 3960,
      "ĠMedicine": 3961,
      "Ġteacher": 3962,
      "ĠRev": 3963,
      "ĠMod": 3964,
      "Ġelement": 3965,
      "Ġtissue": 3966,
      "ĠGovernment": 3967,
      "Ġdistance": 3968,
      "Ġstaff": 3969,
      "Ġeverything": 3970,
      "Ġpractices": 3971,
      "Ġtum": 3972,
      "Ph": 3973,
      "lant": 3974,
      "Ġpow": 3975,
      "pris": 3976,
      "Ġroad": 3977,
      "ĠWater": 3978,
      "Ġgene": 3979,
      "Ġiniti": 3980,
      "Ġseven": 3981,
      "Ġhair": 3982,
      "ĠFl": 3983,
      "with": 3984,
      "Ġbeaut": 3985,
      "enth": 3986,
      "Ġnative": 3987,
      "Ġfemale": 3988,
      "ĠPaul": 3989,
      "Ġ:": 3990,
      "Ġseparate": 3991,
      "Ġstream": 3992,
      "ĠOb": 3993,
      "ĠNow": 3994,
      "ero": 3995,
      "Ġexperim": 3996,
      "Ġphysic": 3997,
      "wards": 3998,
      "Ġprofessor": 3999,
      "ĠEgypt": 4000,
      "Ġstra": 4001,
      "cers": 4002,
      "ographic": 4003,
      "ida": 4004,
      "Ġbound": 4005,
      "eared": 4006,
      "ĠFound": 4007,
      "Ġexamples": 4008,
      "HE": 4009,
      "Ġassist": 4010,
      "Ġmoving": 4011,
      "Ġdefined": 4012,
      "ĠJust": 4013,
      "Ġincreases": 4014,
      "Ġconstruct": 4015,
      "ĠMars": 4016,
      "co": 4017,
      "Ġinsp": 4018,
      "Ġ2002": 4019,
      "ĠPal": 4020,
      "Ġcontract": 4021,
      "Ġmag": 4022,
      "ias": 4023,
      "ĠPeople": 4024,
      "All": 4025,
      "ĠRepublic": 4026,
      "Ġunit": 4027,
      "ĠIslam": 4028,
      "iant": 4029,
      "Ġshape": 4030,
      "Ġprin": 4031,
      "Ã¡": 4032,
      "Ġadm": 4033,
      "Ġexisting": 4034,
      "ellig": 4035,
      "Ġdirection": 4036,
      "Ġpresence": 4037,
      "Ġdidn": 4038,
      "Ġconstant": 4039,
      "Ġsac": 4040,
      "rehens": 4041,
      "Ġcreating": 4042,
      "Ġpoly": 4043,
      "Ġcolle": 4044,
      "Ġrat": 4045,
      "Ġchance": 4046,
      "Ġnote": 4047,
      "Ġnoted": 4048,
      "Ġslight": 4049,
      "Ġwhom": 4050,
      "Ġnor": 4051,
      "Ġautom": 4052,
      "Ġdoub": 4053,
      "Ġmap": 4054,
      "Ġdestroy": 4055,
      "Ġfaith": 4056,
      "Ġplans": 4057,
      "Ġpopulations": 4058,
      "Ġopportunity": 4059,
      "Ġves": 4060,
      "Ġcitizens": 4061,
      "Ġmax": 4062,
      "Ġestimated": 4063,
      "ht": 4064,
      "Ġrob": 4065,
      "New": 4066,
      "ĠGeorge": 4067,
      "ams": 4068,
      "Ġcarried": 4069,
      "rupt": 4070,
      "aling": 4071,
      "Ġcustom": 4072,
      "Ġpresented": 4073,
      "Ġfunctions": 4074,
      "uls": 4075,
      "ĠNews": 4076,
      "Ġkid": 4077,
      "Ġevalu": 4078,
      "ĠFin": 4079,
      "ĠHere": 4080,
      "Ġapproximately": 4081,
      "Ġalcohol": 4082,
      "ander": 4083,
      "ĠDec": 4084,
      "Ġreleased": 4085,
      "Ġoverall": 4086,
      "Ġobserved": 4087,
      "ĠISBN": 4088,
      "Ġjournal": 4089,
      "Ġocean": 4090,
      "Ġstories": 4091,
      "ĠTheir": 4092,
      "Ġradio": 4093,
      "Ġpric": 4094,
      "bed": 4095,
      "Ġimmediately": 4096,
      "Ġpowerful": 4097,
      "Ġmouth": 4098,
      "Ġenh": 4099,
      "iable": 4100,
      "Ġbelieved": 4101,
      "Ġpicture": 4102,
      "ocol": 4103,
      "part": 4104,
      "Ġtruth": 4105,
      "ĠDevelopment": 4106,
      "Ġdim": 4107,
      "Ġrepe": 4108,
      "Ġfields": 4109,
      "Ġkilled": 4110,
      "Ġusers": 4111,
      "itz": 4112,
      "Ġcand": 4113,
      "Ġbran": 4114,
      "78": 4115,
      "Ġtou": 4116,
      "Ġrich": 4117,
      "ĠAre": 4118,
      "Ġhighest": 4119,
      "Ġsigns": 4120,
      "Americ": 4121,
      "ux": 4122,
      "enge": 4123,
      "Ġstrength": 4124,
      "ĠEach": 4125,
      "35": 4126,
      "Ġupper": 4127,
      "Ġspect": 4128,
      "Ġwond": 4129,
      "ĠLou": 4130,
      "Ġbank": 4131,
      "Ġcapacity": 4132,
      "ĠGreek": 4133,
      "ĠChildren": 4134,
      "Ġbra": 4135,
      "igned": 4136,
      "ĠCourt": 4137,
      "Ġincome": 4138,
      "ĠLa": 4139,
      "Ġdistribution": 4140,
      "ĠDem": 4141,
      "Ġdivid": 4142,
      "que": 4143,
      "apers": 4144,
      "ĠRead": 4145,
      "ĠInst": 4146,
      "Ġfully": 4147,
      "mark": 4148,
      "ĠSpanish": 4149,
      "Ġcampaign": 4150,
      "ĠLord": 4151,
      "Ġsouthern": 4152,
      "ĠInter": 4153,
      "Ġmer": 4154,
      "Ġspring": 4155,
      "erate": 4156,
      "Sp": 4157,
      "ĠProject": 4158,
      "Ġinstance": 4159,
      "ĠMexico": 4160,
      "ience": 4161,
      "ogen": 4162,
      "ĠRel": 4163,
      "Ġeventually": 4164,
      "orial": 4165,
      "ĠSen": 4166,
      "Ġtub": 4167,
      "While": 4168,
      "udd": 4169,
      "Ġclinical": 4170,
      "lick": 4171,
      "Ġlung": 4172,
      "orpor": 4173,
      "Ġinsect": 4174,
      "See": 4175,
      "ĠThus": 4176,
      "ĠAir": 4177,
      "Ġvia": 4178,
      "Ġgenes": 4179,
      "Ġfigure": 4180,
      "Ġfruit": 4181,
      "Ġweak": 4182,
      "ĠTexas": 4183,
      "45": 4184,
      "Ġconservation": 4185,
      "Ġ29": 4186,
      "ĠVirgin": 4187,
      "Ġhom": 4188,
      "iring": 4189,
      "Ġorganizations": 4190,
      "Ġvision": 4191,
      "Ġmoment": 4192,
      "Ġmaintain": 4193,
      "Ad": 4194,
      "Ġfriend": 4195,
      "Ġfavor": 4196,
      "Ġsymbol": 4197,
      "Ġmeeting": 4198,
      "Ġ+": 4199,
      "Ġlived": 4200,
      "Ġnorthern": 4201,
      "Ġmale": 4202,
      "Ġcommunication": 4203,
      "uild": 4204,
      "ĠTur": 4205,
      "Ġtransfer": 4206,
      "Ġsem": 4207,
      "west": 4208,
      "Ġtrib": 4209,
      "that": 4210,
      "Ġrunning": 4211,
      "Ġannual": 4212,
      "Ġreference": 4213,
      "ean": 4214,
      "Ġoffers": 4215,
      "Ġdecades": 4216,
      "ET": 4217,
      "ĠUse": 4218,
      "Ġcomplic": 4219,
      "ĠPlan": 4220,
      "ĠBra": 4221,
      "Ġsample": 4222,
      "Ġcru": 4223,
      "Ġfailure": 4224,
      "ĠRich": 4225,
      "force": 4226,
      "iverse": 4227,
      "Ġresource": 4228,
      "road": 4229,
      "Ġteach": 4230,
      "ĠMount": 4231,
      "Ġ1990": 4232,
      "clus": 4233,
      "gl": 4234,
      "Ġauthors": 4235,
      "change": 4236,
      "Ġbox": 4237,
      "ĠFore": 4238,
      "Ġcreation": 4239,
      "name": 4240,
      "ĠPat": 4241,
      "Ġemphas": 4242,
      "Ġeveryone": 4243,
      "ygen": 4244,
      "essor": 4245,
      "Ġworth": 4246,
      "Ġvessel": 4247,
      "ĠCatholic": 4248,
      "Ġconducted": 4249,
      "Ġperfect": 4250,
      "Ġiron": 4251,
      "ÃŃ": 4252,
      "well": 4253,
      "Ġexplain": 4254,
      "Ġ80": 4255,
      "Ġremoved": 4256,
      "Ġdie": 4257,
      "Is": 4258,
      "Ġcook": 4259,
      "Ġminor": 4260,
      "itness": 4261,
      "Ġesc": 4262,
      "iance": 4263,
      "Ġsuppl": 4264,
      "acific": 4265,
      "Ġfresh": 4266,
      "ager": 4267,
      "Ġcoal": 4268,
      "Ġvisual": 4269,
      "Ġrelease": 4270,
      "char": 4271,
      "gra": 4272,
      "Ġpiece": 4273,
      "urance": 4274,
      "abilities": 4275,
      "ensus": 4276,
      "Ġfeature": 4277,
      "Ġgeneration": 4278,
      "Ġindustrial": 4279,
      "respond": 4280,
      "After": 4281,
      "Ġfert": 4282,
      "Ġdetails": 4283,
      "ĠSun": 4284,
      "Ġfactor": 4285,
      "ament": 4286,
      "ĠEnergy": 4287,
      "Ġchoice": 4288,
      "porary": 4289,
      "Ġheavy": 4290,
      "Ġturned": 4291,
      "ĠMart": 4292,
      "Ġign": 4293,
      "Ġstructures": 4294,
      "Ġisn": 4295,
      "zz": 4296,
      "Ġimmune": 4297,
      "Ġhousehold": 4298,
      "Ġurban": 4299,
      "isher": 4300,
      "Ġcontext": 4301,
      "Ġcovered": 4302,
      "Ġpatterns": 4303,
      "met": 4304,
      "ĠLibrary": 4305,
      "Ġactions": 4306,
      "rates": 4307,
      "Ġsteps": 4308,
      "Ġproperties": 4309,
      "leg": 4310,
      "ĠSpace": 4311,
      "Ġdegrees": 4312,
      "Ġstyle": 4313,
      "Ġmilk": 4314,
      "iox": 4315,
      "Ġplanning": 4316,
      "ii": 4317,
      "ĠIsland": 4318,
      "Ġalt": 4319,
      "Ġparty": 4320,
      "Ġconv": 4321,
      "Ġactual": 4322,
      "33": 4323,
      "igure": 4324,
      "Ġblue": 4325,
      "Ġinstruct": 4326,
      "Ġmotion": 4327,
      "ndrome": 4328,
      "ressive": 4329,
      "ĠMr": 4330,
      "Ġcry": 4331,
      "Ġserved": 4332,
      "Ġphen": 4333,
      "Ġserve": 4334,
      "ĠMD": 4335,
      "Ġmal": 4336,
      "ĠJapanese": 4337,
      "ider": 4338,
      "eces": 4339,
      "AM": 4340,
      "Ġwatch": 4341,
      "Ġchoose": 4342,
      "astern": 4343,
      "Ġrace": 4344,
      "ĠSer": 4345,
      "Ġliqu": 4346,
      "Ġletter": 4347,
      "ample": 4348,
      "75": 4349,
      "Ġperformed": 4350,
      "Ġfrequently": 4351,
      "ares": 4352,
      "Ġsexual": 4353,
      "hy": 4354,
      "Ġbattle": 4355,
      "Ġatmosphere": 4356,
      "Ġâ": 4357,
      "Ġclearly": 4358,
      "ĠDon": 4359,
      "Ġaccur": 4360,
      "Ġtro": 4361,
      "Ġfilm": 4362,
      "Be": 4363,
      "ifically": 4364,
      "Ġbuildings": 4365,
      "Ġgiving": 4366,
      "ĠCivil": 4367,
      "ortion": 4368,
      "ĠEv": 4369,
      "RE": 4370,
      "Ġmob": 4371,
      "Ġ1999": 4372,
      "Ġunivers": 4373,
      "Ġarticles": 4374,
      "Ġdisorders": 4375,
      "ching": 4376,
      "Ġpages": 4377,
      "Ġreprodu": 4378,
      "Ġattract": 4379,
      "Ġwrong": 4380,
      "Ġterrit": 4381,
      "key": 4382,
      "ĠNet": 4383,
      "ĠOur": 4384,
      "Ġcombination": 4385,
      "Ġextremely": 4386,
      "Ġflood": 4387,
      "Ġdiscussion": 4388,
      "olved": 4389,
      "Ġrot": 4390,
      "Ġelectricity": 4391,
      "ĠDes": 4392,
      "Ġwest": 4393,
      "Ġbehavi": 4394,
      "ĠHol": 4395,
      "oice": 4396,
      "Ġforward": 4397,
      "bert": 4398,
      "which": 4399,
      "Ġhospital": 4400,
      "Ġinform": 4401,
      "Ġefficient": 4402,
      "iding": 4403,
      "ĠRobert": 4404,
      "CO": 4405,
      "Ġremember": 4406,
      "elines": 4407,
      "Ġconsumption": 4408,
      "Ġvary": 4409,
      "Ġnumerous": 4410,
      "Ġmathemat": 4411,
      "Ġreligion": 4412,
      "Ġgrant": 4413,
      "ĠAsia": 4414,
      "Ġelim": 4415,
      "Ġdram": 4416,
      "Ġcontrast": 4417,
      "Ġintroduced": 4418,
      "ped": 4419,
      "Ġoperations": 4420,
      "ĠMat": 4421,
      "Ġarr": 4422,
      "Ġinfections": 4423,
      "Ġphilosoph": 4424,
      "Ġindependent": 4425,
      "ael": 4426,
      "oviet": 4427,
      "rows": 4428,
      "Ġlearned": 4429,
      "RO": 4430,
      "Ġacadem": 4431,
      "Ġalternative": 4432,
      "Ġconfirm": 4433,
      "36": 4434,
      "rations": 4435,
      "Ġabsor": 4436,
      "Ġcollabor": 4437,
      "aste": 4438,
      "Ġtemperatures": 4439,
      "Ġdesp": 4440,
      "Ġvolunt": 4441,
      "za": 4442,
      "Ġpick": 4443,
      "Ġqual": 4444,
      "Ġbodies": 4445,
      "They": 4446,
      "ĠPhys": 4447,
      "Ġliterature": 4448,
      "Ġdistinct": 4449,
      "Ġfamous": 4450,
      "Ġnotes": 4451,
      "Ġstim": 4452,
      "ĠThomas": 4453,
      "ault": 4454,
      "order": 4455,
      "othes": 4456,
      "Ġdigital": 4457,
      "itors": 4458,
      "Ġboard": 4459,
      "Ġtrou": 4460,
      "aped": 4461,
      "Ġapply": 4462,
      "Ġexperiment": 4463,
      "stronom": 4464,
      "Ġwear": 4465,
      "Ġinh": 4466,
      "Ġfreedom": 4467,
      "uit": 4468,
      "ĠCommission": 4469,
      "Res": 4470,
      "Ġburn": 4471,
      "ĠJer": 4472,
      "cipl": 4473,
      "Ġfinding": 4474,
      "Ġopin": 4475,
      "uted": 4476,
      "Ġhomes": 4477,
      "Ġresistance": 4478,
      "Ġcomponents": 4479,
      "ĠInformation": 4480,
      "Ġpolicies": 4481,
      "ocal": 4482,
      "otes": 4483,
      "Ġwet": 4484,
      "Ġdatab": 4485,
      "pire": 4486,
      "ios": 4487,
      "Ġple": 4488,
      "Ġreached": 4489,
      "Ġgraph": 4490,
      "orage": 4491,
      "Ġsav": 4492,
      "Ġexposed": 4493,
      "Ġdetect": 4494,
      "Ġsave": 4495,
      "Ġdrop": 4496,
      "rian": 4497,
      "Ġneu": 4498,
      "Ġdetermined": 4499,
      "Ġwidely": 4500,
      "Ġrul": 4501,
      "ĠMic": 4502,
      "ĠJud": 4503,
      "Ġmessage": 4504,
      "ĠSocial": 4505,
      "ĠWind": 4506,
      "aus": 4507,
      "Ġstrugg": 4508,
      "Ġthick": 4509,
      "ees": 4510,
      "ĠDirect": 4511,
      "och": 4512,
      "ounced": 4513,
      "ĠAut": 4514,
      "ĠHen": 4515,
      "Sh": 4516,
      "ĠMuslim": 4517,
      "Ġofficials": 4518,
      "Ġhuge": 4519,
      "Ġisland": 4520,
      "ĠDise": 4521,
      "ĠBay": 4522,
      "Ġcircum": 4523,
      "Ġtask": 4524,
      "Ġdirector": 4525,
      "Ġtechnologies": 4526,
      "Ġinitial": 4527,
      "osystem": 4528,
      "Ġspeech": 4529,
      "ĠLear": 4530,
      "That": 4531,
      "Ġsitu": 4532,
      "ĠBer": 4533,
      "ĠArmy": 4534,
      "ĠArab": 4535,
      "Ġdu": 4536,
      "Ġrequirements": 4537,
      "Ġreferred": 4538,
      "Ġarchitect": 4539,
      "erences": 4540,
      "Ġguide": 4541,
      "fl": 4542,
      "Ġmachine": 4543,
      "Ġbottom": 4544,
      "roke": 4545,
      "Ġexpress": 4546,
      "Ġdrive": 4547,
      "Ġnovel": 4548,
      "Ġsquare": 4549,
      "Ġreb": 4550,
      "vision": 4551,
      "ĠCD": 4552,
      "ria": 4553,
      "ĠOrgan": 4554,
      "Ġsignificantly": 4555,
      "Ġrecommended": 4556,
      "tical": 4557,
      "Ġconclud": 4558,
      "Ġpartners": 4559,
      "ĠOld": 4560,
      "Ġhur": 4561,
      "Ġdiagnosis": 4562,
      "istan": 4563,
      "Ġsand": 4564,
      "Ġcounter": 4565,
      "Ġdecisions": 4566,
      "ville": 4567,
      "iveness": 4568,
      "Ġremained": 4569,
      "Ġwaters": 4570,
      "Ġpi": 4571,
      "Ġresulting": 4572,
      "CC": 4573,
      "oting": 4574,
      "Ġdyn": 4575,
      "Ġoxygen": 4576,
      "Ġexcess": 4577,
      "Ġpersons": 4578,
      "berg": 4579,
      "ĠOver": 4580,
      "Ġpreviously": 4581,
      "ĠUnder": 4582,
      "atically": 4583,
      "ij": 4584,
      "ado": 4585,
      "Ġchief": 4586,
      "Ġship": 4587,
      "ania": 4588,
      "Ġhear": 4589,
      "ĠPacific": 4590,
      "Ġbecoming": 4591,
      "Ġorganic": 4592,
      "ĠSy": 4593,
      "Ġconvers": 4594,
      "Ġ189": 4595,
      "ĠWhite": 4596,
      "Ġexistence": 4597,
      "Ġdoll": 4598,
      "Ġreplace": 4599,
      "Ġwin": 4600,
      "Ġvaccine": 4601,
      "Ġstrategies": 4602,
      "Ġunits": 4603,
      "ishes": 4604,
      "Ġrang": 4605,
      "Ġglass": 4606,
      "ĠFlor": 4607,
      "nic": 4608,
      "Ġproposed": 4609,
      "ĠSoviet": 4610,
      "Ġarmy": 4611,
      "Ġ70": 4612,
      "htm": 4613,
      "Ġfoss": 4614,
      "Ġprocedure": 4615,
      "chers": 4616,
      "Ġitems": 4617,
      "ĠWork": 4618,
      "rog": 4619,
      "Ġmo": 4620,
      "Ġwanted": 4621,
      "Ġhappen": 4622,
      "Ġlib": 4623,
      "Ġtransl": 4624,
      "Ġcorrespond": 4625,
      "des": 4626,
      "Ġappoint": 4627,
      "ras": 4628,
      "ĠJose": 4629,
      "unction": 4630,
      "igen": 4631,
      "Ġsupported": 4632,
      "ributed": 4633,
      "Ġupd": 4634,
      "Ġsort": 4635,
      "Ġhelped": 4636,
      "Ġbed": 4637,
      "PS": 4638,
      "lar": 4639,
      "Ġwww": 4640,
      "Ġhop": 4641,
      "Ġvolume": 4642,
      "alle": 4643,
      "Ġpresc": 4644,
      "Ġfarmers": 4645,
      "Ġplease": 4646,
      "ĠDi": 4647,
      "Ġsecret": 4648,
      "ĠLatin": 4649,
      "ĠIts": 4650,
      "Ġcollege": 4651,
      "Ġdepression": 4652,
      "Ġkept": 4653,
      "ĠTest": 4654,
      "Ġisol": 4655,
      "Ġeast": 4656,
      "Ġbuy": 4657,
      "ĠLabor": 4658,
      "ĠLouis": 4659,
      "kin": 4660,
      "ĠFood": 4661,
      "cycl": 4662,
      "vis": 4663,
      "Ġstore": 4664,
      "ception": 4665,
      "Ġ90": 4666,
      "Most": 4667,
      "Ġauthority": 4668,
      "Ġround": 4669,
      "Ġinstitutions": 4670,
      "Ab": 4671,
      "ingly": 4672,
      "raction": 4673,
      "ieties": 4674,
      "ĠChe": 4675,
      "Ġreturned": 4676,
      "ĠPort": 4677,
      "Ġprinciples": 4678,
      "Ġlic": 4679,
      "Ġtour": 4680,
      "ien": 4681,
      "ĠSal": 4682,
      "Ġbelong": 4683,
      "Ġtrend": 4684,
      "rum": 4685,
      "Ġstarting": 4686,
      "38": 4687,
      "Ġanyone": 4688,
      "oyal": 4689,
      "Ġhour": 4690,
      "Ġcharacteristics": 4691,
      "ĠAcadem": 4692,
      "Ġcra": 4693,
      "iful": 4694,
      "Â°": 4695,
      "Ġgain": 4696,
      "ĠBas": 4697,
      "riage": 4698,
      "Ġmanner": 4699,
      "aughter": 4700,
      "ĠCentral": 4701,
      "ĠMal": 4702,
      "Ġnutrition": 4703,
      "Ġcoord": 4704,
      "ĠOffice": 4705,
      "198": 4706,
      "Ġgoals": 4707,
      "Ġconcern": 4708,
      "Ġstatement": 4709,
      "Ġspent": 4710,
      "Ġlayer": 4711,
      "ĠReview": 4712,
      "ormally": 4713,
      "Ġprepar": 4714,
      "Ġbrother": 4715,
      "col": 4716,
      "lements": 4717,
      "Although": 4718,
      "Ġcere": 4719,
      "ball": 4720,
      "Ġoperation": 4721,
      "ĠMass": 4722,
      "ĠVirginia": 4723,
      "ĠCarol": 4724,
      "Ġstation": 4725,
      "isp": 4726,
      "Ġcomment": 4727,
      "Ġchanging": 4728,
      "imer": 4729,
      "ĠUK": 4730,
      "Ġmostly": 4731,
      "Ġmuscle": 4732,
      "Ġmedications": 4733,
      "Ġfine": 4734,
      "ĠSub": 4735,
      "Ġopportunities": 4736,
      "rus": 4737,
      "Other": 4738,
      "ĠGra": 4739,
      "Ġoccurred": 4740,
      "ĠFoundation": 4741,
      "Ġcausing": 4742,
      "34": 4743,
      "Ġrisks": 4744,
      "ĠMil": 4745,
      "roph": 4746,
      "Ġmetal": 4747,
      "Ġexperts": 4748,
      "olid": 4749,
      "Ġdecided": 4750,
      "ĠSou": 4751,
      "Ġinvolve": 4752,
      "ĠWhy": 4753,
      "Ġheard": 4754,
      "Ġvitamin": 4755,
      "ĠSam": 4756,
      "ĠAD": 4757,
      "Ġinternal": 4758,
      "Ġapparent": 4759,
      "zing": 4760,
      "Ġcomprehens": 4761,
      "Ġbill": 4762,
      "ented": 4763,
      "umn": 4764,
      "US": 4765,
      "ĠFre": 4766,
      "ĠMac": 4767,
      "Ġoutput": 4768,
      "From": 4769,
      "itage": 4770,
      "Ġemergency": 4771,
      "Ġyourself": 4772,
      "Ġprimarily": 4773,
      "Ġviolence": 4774,
      "Ġadvanced": 4775,
      "mal": 4776,
      "Ġclasses": 4777,
      "ĠWild": 4778,
      "Ġaspects": 4779,
      "Ġnations": 4780,
      "amily": 4781,
      "Ġwestern": 4782,
      "Ġdefic": 4783,
      "Ġdro": 4784,
      "wood": 4785,
      "Ġcompl": 4786,
      "ĠWil": 4787,
      "aker": 4788,
      "Many": 4789,
      "Ġgrass": 4790,
      "Ġquar": 4791,
      "Ġchallenges": 4792,
      "Ġbrief": 4793,
      "Ġintended": 4794,
      "Ġoptions": 4795,
      "Ġprices": 4796,
      "ĠAtlant": 4797,
      "Ġnutri": 4798,
      "uration": 4799,
      "Ġkill": 4800,
      "Ġreaction": 4801,
      "Ġbalance": 4802,
      "Ġinnov": 4803,
      "Ġpul": 4804,
      "ague": 4805,
      "Ġ35": 4806,
      "what": 4807,
      "Ġsnow": 4808,
      "Ġchronic": 4809,
      "Ġexactly": 4810,
      "Ġagg": 4811,
      "Ġtoxic": 4812,
      "Ġremove": 4813,
      "field": 4814,
      "Ġamounts": 4815,
      "Ġlargely": 4816,
      "Ġcris": 4817,
      "Ġ1998": 4818,
      "ĠSmith": 4819,
      "arrow": 4820,
      "Ġpregnancy": 4821,
      "Ġconcerns": 4822,
      "rence": 4823,
      "Ġemail": 4824,
      "mp": 4825,
      "Ġcompleted": 4826,
      "Ġsolid": 4827,
      "Ġintellig": 4828,
      "Ġaid": 4829,
      "Ġreality": 4830,
      "Ġobvious": 4831,
      "oper": 4832,
      "Ġgrand": 4833,
      "Ġthin": 4834,
      "Ġgets": 4835,
      "Ġcredit": 4836,
      "ded": 4837,
      "ĠStand": 4838,
      "aur": 4839,
      "nel": 4840,
      "otic": 4841,
      "Ġunf": 4842,
      "Ġsignal": 4843,
      "Ġinterpret": 4844,
      "Ġadvantage": 4845,
      "Ġbackground": 4846,
      "Ġreducing": 4847,
      "Ġload": 4848,
      "Ġsufficient": 4849,
      "onomic": 4850,
      "Ġinterested": 4851,
      "Ġparticipants": 4852,
      "verty": 4853,
      "Ġstars": 4854,
      "Ġcharge": 4855,
      "oking": 4856,
      "Ġextent": 4857,
      "Ġindicate": 4858,
      "Ġsamples": 4859,
      "Ġmere": 4860,
      "ĠBel": 4861,
      "Ġfif": 4862,
      "ĠMark": 4863,
      "ears": 4864,
      "Ġpoverty": 4865,
      "bal": 4866,
      "Ġrecorded": 4867,
      "39": 4868,
      "cest": 4869,
      "Ġfinally": 4870,
      "ĠSea": 4871,
      "Ġchemicals": 4872,
      "Ġconver": 4873,
      "76": 4874,
      "ishing": 4875,
      "Ġprefer": 4876,
      "Ġinjury": 4877,
      "Ġlibrary": 4878,
      "ĠDar": 4879,
      "Ġengineering": 4880,
      "plant": 4881,
      "ek": 4882,
      "ĠBritain": 4883,
      "Ġinstall": 4884,
      "Ġchallenge": 4885,
      "Ġwealth": 4886,
      "Ġclick": 4887,
      "RI": 4888,
      "Ġbud": 4889,
      "Ġinfl": 4890,
      "Ġpurposes": 4891,
      "Ġconnection": 4892,
      "Ġsuggested": 4893,
      "rep": 4894,
      "iled": 4895,
      "ĠLake": 4896,
      "Ġtechnique": 4897,
      "____": 4898,
      "med": 4899,
      "Ġappeared": 4900,
      "utive": 4901,
      "tle": 4902,
      "ĠUp": 4903,
      "Ġencourage": 4904,
      "ĠLet": 4905,
      "Ġcycle": 4906,
      "Ġfol": 4907,
      "iology": 4908,
      "Ġlinked": 4909,
      "Ġelectrical": 4910,
      "Ġdiss": 4911,
      "More": 4912,
      "ĠDef": 4913,
      "Ġassessment": 4914,
      "Ġincorpor": 4915,
      "Ġpun": 4916,
      "Ġclassroom": 4917,
      "ĠCharles": 4918,
      "ĠEnvironmental": 4919,
      "rolog": 4920,
      "Ġsurpris": 4921,
      "Ġprepared": 4922,
      "Ġvictim": 4923,
      "Ġexpression": 4924,
      "Ġsubstant": 4925,
      "ossible": 4926,
      "roc": 4927,
      "amental": 4928,
      "Ġconsult": 4929,
      "Ġdescribe": 4930,
      "ĠPost": 4931,
      "Ġdisapp": 4932,
      "Ġmanufacture": 4933,
      "ĠNor": 4934,
      "Ġmeant": 4935,
      "Ġbird": 4936,
      "Ġperman": 4937,
      "48": 4938,
      "Ġforced": 4939,
      "Ġdangerous": 4940,
      "Ġsaying": 4941,
      "AP": 4942,
      "Ġtrig": 4943,
      "Ġcontinues": 4944,
      "ĠIr": 4945,
      "Ġregarding": 4946,
      "ĠOp": 4947,
      "Ġgreatest": 4948,
      "Ġlinks": 4949,
      "cience": 4950,
      "Ġlandsc": 4951,
      "Ġseed": 4952,
      "ilit": 4953,
      "akers": 4954,
      "ulating": 4955,
      "Ġoffered": 4956,
      "state": 4957,
      "ulum": 4958,
      "Ġgarden": 4959,
      "Ġagencies": 4960,
      "Ġgod": 4961,
      "Ġimproved": 4962,
      "Con": 4963,
      "ĠColumb": 4964,
      "ortunately": 4965,
      "Ġpromote": 4966,
      "Ġkm": 4967,
      "ructure": 4968,
      "Ġeggs": 4969,
      "Ġsyndrome": 4970,
      "Ġhabitat": 4971,
      "Ġ1997": 4972,
      "According": 4973,
      "ĠGroup": 4974,
      "omy": 4975,
      "Ġrail": 4976,
      "ĠFranc": 4977,
      "Ġready": 4978,
      "Ġtreatments": 4979,
      "Ġwife": 4980,
      "osen": 4981,
      "ĠBook": 4982,
      "Ġagricultural": 4983,
      "Ġcamer": 4984,
      "BC": 4985,
      "tes": 4986,
      "Ġdefinition": 4987,
      "Ġphenomen": 4988,
      "Ġdomestic": 4989,
      "tion": 4990,
      "Ġhorm": 4991,
      "Ġtim": 4992,
      "Ġhyper": 4993,
      "OS": 4994,
      "ey": 4995,
      "ixt": 4996,
      "Ġcombined": 4997,
      "ĠDiv": 4998,
      "Ġotherwise": 4999,
      "ML": 5000,
      "Ġshar": 5001,
      "Ġbegins": 5002,
      "Cl": 5003,
      "Ġperspect": 5004,
      "Ġsetting": 5005,
      "Ġ188": 5006,
      "Ġparticles": 5007,
      "rier": 5008,
      "ĠAlex": 5009,
      "Ġimmig": 5010,
      "Ġwarming": 5011,
      "ya": 5012,
      "Ġkil": 5013,
      "Ġpollution": 5014,
      "Ġdouble": 5015,
      "ĠDist": 5016,
      "Ġexplore": 5017,
      "Ġfacilities": 5018,
      "burg": 5019,
      "Ġstudied": 5020,
      "Ġstorage": 5021,
      "ĠPers": 5022,
      "ĠChic": 5023,
      "Ġcore": 5024,
      "onic": 5025,
      "agues": 5026,
      "Ġtechnical": 5027,
      "Ġscen": 5028,
      "Ġvul": 5029,
      "Ġraised": 5030,
      "normal": 5031,
      "ĠHistor": 5032,
      "Ġeasier": 5033,
      "standing": 5034,
      "Ġlooked": 5035,
      "ĠTreat": 5036,
      "ota": 5037,
      "100": 5038,
      "Ġban": 5039,
      "isation": 5040,
      "Ġcollected": 5041,
      "Ġpark": 5042,
      "oo": 5043,
      "mit": 5044,
      "Ġsyn": 5045,
      "Ġunderst": 5046,
      "ping": 5047,
      "Ġpump": 5048,
      "Ġcontaining": 5049,
      "Ġpret": 5050,
      "American": 5051,
      "Ġreduction": 5052,
      "Ġbiological": 5053,
      "Ġmentioned": 5054,
      "Ġconflict": 5055,
      "cyclop": 5056,
      "Ġphase": 5057,
      "Ġinput": 5058,
      "Ġyouth": 5059,
      "Ġsynt": 5060,
      "Ġmel": 5061,
      "inating": 5062,
      "hetic": 5063,
      "osite": 5064,
      "IDS": 5065,
      "Ġtested": 5066,
      "Ġdetailed": 5067,
      "iling": 5068,
      "ĠHel": 5069,
      "Ġkinds": 5070,
      "rans": 5071,
      "Ġmort": 5072,
      "EL": 5073,
      "Ġdocuments": 5074,
      "Ġpal": 5075,
      "Ġcenturies": 5076,
      "Ġpieces": 5077,
      "rick": 5078,
      "olute": 5079,
      "Ġjobs": 5080,
      "Ġroot": 5081,
      "Ġformation": 5082,
      "Ġportion": 5083,
      "Ġinstrument": 5084,
      "ĠScient": 5085,
      "Ġneighbor": 5086,
      "RC": 5087,
      "Ġmamm": 5088,
      "Ġsatell": 5089,
      "icial": 5090,
      "Ġliver": 5091,
      "Ġindex": 5092,
      "Ġ1980": 5093,
      "Ġecosystem": 5094,
      "Ġefficiency": 5095,
      "Ġleader": 5096,
      "Ġseek": 5097,
      "Ġconvent": 5098,
      "Ġdiscover": 5099,
      "ĠCle": 5100,
      "ĠFederal": 5101,
      "OT": 5102,
      "Ġband": 5103,
      "Ġexcell": 5104,
      "Ġvast": 5105,
      "Ġsick": 5106,
      "Ġslightly": 5107,
      "Ġweap": 5108,
      "ona": 5109,
      "ĠFlorida": 5110,
      "Ġjour": 5111,
      "place": 5112,
      "Ġtrial": 5113,
      "ags": 5114,
      "Ġlanguages": 5115,
      "ctic": 5116,
      "works": 5117,
      "Ġresponsibility": 5118,
      "44": 5119,
      "ĠMiddle": 5120,
      "32": 5121,
      "65": 5122,
      "inger": 5123,
      "Ġrequest": 5124,
      "ĠTwo": 5125,
      "ĠRights": 5126,
      "Ġexperiences": 5127,
      "ective": 5128,
      "Ġhundreds": 5129,
      "Ġdrinking": 5130,
      "No": 5131,
      "Ġmeat": 5132,
      "ĠKen": 5133,
      ".|": 5134,
      "Ġclos": 5135,
      "Ġlooks": 5136,
      "Ġrevolution": 5137,
      "band": 5138,
      "Ġprison": 5139,
      "Ġcast": 5140,
      "Ġsustainable": 5141,
      "Ġmeasured": 5142,
      "Ġdivided": 5143,
      "ĠMem": 5144,
      "do": 5145,
      "ĠTechnology": 5146,
      "rust": 5147,
      "Ġ>": 5148,
      "Ġrecognized": 5149,
      "Ġspot": 5150,
      "Ġelev": 5151,
      "Ġadjust": 5152,
      "Ġgovernments": 5153,
      "Ġmorning": 5154,
      "ĠNav": 5155,
      "aks": 5156,
      "Ġattacks": 5157,
      "eters": 5158,
      "ĠWomen": 5159,
      "Ġfle": 5160,
      "body": 5161,
      "point": 5162,
      "Ġbatter": 5163,
      "Ġfluid": 5164,
      "Ġpray": 5165,
      "Ġgall": 5166,
      "Ġinvolves": 5167,
      "Ġ*": 5168,
      "Ġexplan": 5169,
      "eck": 5170,
      "Ġrenew": 5171,
      "ĠSl": 5172,
      "ĠCommittee": 5173,
      "board": 5174,
      "37": 5175,
      "ĠAp": 5176,
      "oughly": 5177,
      "cript": 5178,
      "Ġenem": 5179,
      "ognitive": 5180,
      "omin": 5181,
      "mat": 5182,
      "Ġrural": 5183,
      "unk": 5184,
      "Ġsen": 5185,
      "ocratic": 5186,
      "ifying": 5187,
      "ĠBro": 5188,
      "Ġcertainly": 5189,
      "Ġ1995": 5190,
      "Ġtried": 5191,
      "Ġclaims": 5192,
      "ĠLife": 5193,
      "rich": 5194,
      "born": 5195,
      "Ġfort": 5196,
      "ses": 5197,
      "ache": 5198,
      "ĠElect": 5199,
      "Ġheight": 5200,
      "AD": 5201,
      "Ġoperating": 5202,
      "ĠRussian": 5203,
      "ĠPsych": 5204,
      "Ġsubsequ": 5205,
      "Ġforests": 5206,
      "Ġmotor": 5207,
      "500": 5208,
      "ulin": 5209,
      "ura": 5210,
      "onds": 5211,
      "ĠMont": 5212,
      "Ġfiles": 5213,
      "olars": 5214,
      "Ġtopic": 5215,
      "ĠOh": 5216,
      "55": 5217,
      "ĠStudents": 5218,
      "ĠJoseph": 5219,
      "Ġ<": 5220,
      "Ġexpert": 5221,
      "ibl": 5222,
      "ĠBoth": 5223,
      "Ġmaster": 5224,
      "Ġyellow": 5225,
      "olf": 5226,
      "ston": 5227,
      "Ġperiods": 5228,
      "ĠAN": 5229,
      "Ġdistingu": 5230,
      "Ġregional": 5231,
      "ĠBen": 5232,
      "Ġdiscovery": 5233,
      "ĠOnce": 5234,
      "Ġsubjects": 5235,
      "Ġ1996": 5236,
      "Ġplayed": 5237,
      "Ġsector": 5238,
      "Ġconnected": 5239,
      "Ġshowing": 5240,
      "Ġclosely": 5241,
      "lers": 5242,
      "Ġknew": 5243,
      "Now": 5244,
      "Ġproperly": 5245,
      "Ġmulti": 5246,
      "ĠRem": 5247,
      "Ġvent": 5248,
      "Ġadvance": 5249,
      "ellect": 5250,
      "Ġuniverse": 5251,
      "Ġletters": 5252,
      "osc": 5253,
      "Ġhearing": 5254,
      "Ġsong": 5255,
      "Ġnav": 5256,
      "Ġdeaths": 5257,
      "ĠIll": 5258,
      "pat": 5259,
      "ĠSecond": 5260,
      "31": 5261,
      "Ġhappens": 5262,
      "ĠCompany": 5263,
      "going": 5264,
      "Ġresidents": 5265,
      "Ġselected": 5266,
      "oln": 5267,
      "active": 5268,
      "ava": 5269,
      "ĠMet": 5270,
      "Ġmist": 5271,
      "Ġclim": 5272,
      "Ġbright": 5273,
      "Ġstone": 5274,
      "Ġalg": 5275,
      "care": 5276,
      "ĠTer": 5277,
      ".;": 5278,
      "Ġprofession": 5279,
      "Ġmillions": 5280,
      "Ġancest": 5281,
      "Ġgar": 5282,
      "Ġowners": 5283,
      "ĠPri": 5284,
      "esity": 5285,
      "Ġpil": 5286,
      "Ġfelt": 5287,
      "Ġfundamental": 5288,
      "Ġlatest": 5289,
      "Ġargument": 5290,
      "MS": 5291,
      "Ġsed": 5292,
      "Ġnan": 5293,
      "Ġhaz": 5294,
      "Ġdoctors": 5295,
      "Ġroll": 5296,
      "ĠSuch": 5297,
      "Ġpolice": 5298,
      "Ġmoon": 5299,
      "Ġinterview": 5300,
      "lig": 5301,
      "ropical": 5302,
      "Ġliquid": 5303,
      "Ġconcerned": 5304,
      "Ġble": 5305,
      "Ġrapidly": 5306,
      "Ġsalt": 5307,
      "ĠBible": 5308,
      "such": 5309,
      "Ġexperienced": 5310,
      "Ġages": 5311,
      "Ġcrops": 5312,
      "Ġadopted": 5313,
      "Ġchapter": 5314,
      "othing": 5315,
      "Ġsides": 5316,
      "Ġmainly": 5317,
      "rete": 5318,
      "Ġpractical": 5319,
      "from": 5320,
      "ategy": 5321,
      "Ġtaught": 5322,
      "ĠSom": 5323,
      "Ġadvice": 5324,
      "Ġobtained": 5325,
      "Ġsend": 5326,
      "hma": 5327,
      "Ġprevention": 5328,
      "ĠSouthern": 5329,
      "Ġcontem": 5330,
      "uable": 5331,
      "ĠSte": 5332,
      "Ġspl": 5333,
      "Ġtypical": 5334,
      "Ġgirls": 5335,
      "Ġviews": 5336,
      "Ġselection": 5337,
      "Ġ31": 5338,
      "espite": 5339,
      "Ġ#": 5340,
      "ĠToday": 5341,
      "Ġacademic": 5342,
      "ĠCamb": 5343,
      "Ġpaint": 5344,
      "gov": 5345,
      "spec": 5346,
      "ĠHenry": 5347,
      "49": 5348,
      "Ġtrust": 5349,
      "Ġexplained": 5350,
      "inet": 5351,
      "Ġlatter": 5352,
      "Ġstrategy": 5353,
      "ĠÃ": 5354,
      "Ġcontrolled": 5355,
      "ION": 5356,
      "ĠCancer": 5357,
      "Ġfunding": 5358,
      "ĠControl": 5359,
      "Ġhelping": 5360,
      "Ġtherap": 5361,
      "itan": 5362,
      "Ġinject": 5363,
      "Ġgames": 5364,
      "ĠAdminist": 5365,
      "Ġfacts": 5366,
      "ĠNature": 5367,
      "Ġfollows": 5368,
      "Ġgoods": 5369,
      "ompl": 5370,
      "Ġstated": 5371,
      "Ġplastic": 5372,
      "Ġprocessing": 5373,
      "Ġmarine": 5374,
      "erves": 5375,
      "ctor": 5376,
      "emic": 5377,
      "Ġseeds": 5378,
      "Ġadvoc": 5379,
      "].": 5380,
      "othe": 5381,
      "ĠSaf": 5382,
      "rosc": 5383,
      "Ġspiritual": 5384,
      "Ġfrequency": 5385,
      "Ġrand": 5386,
      "Ġdespite": 5387,
      "Ġcalls": 5388,
      "Ġallerg": 5389,
      "Ġdepending": 5390,
      "Ġonto": 5391,
      "Ġwonder": 5392,
      "Ġcomponent": 5393,
      "Ġharvest": 5394,
      "Ġdatabase": 5395,
      "no": 5396,
      "Ġproteins": 5397,
      "Ġfrag": 5398,
      "Ġsoldiers": 5399,
      "Ġchann": 5400,
      "ĠWell": 5401,
      "eline": 5402,
      "reed": 5403,
      "Ġleads": 5404,
      "Ġtitle": 5405,
      "roid": 5406,
      "Ġfell": 5407,
      "Ġtransform": 5408,
      "ĠNations": 5409,
      "Ġhappened": 5410,
      "Ġmonitoring": 5411,
      "rants": 5412,
      "umber": 5413,
      "ĠChicago": 5414,
      "ĠST": 5415,
      "ĠSum": 5416,
      "Ġunless": 5417,
      "Ġflight": 5418,
      "Ġrandom": 5419,
      "Ġallowing": 5420,
      "Ġtroops": 5421,
      "Ġlisted": 5422,
      "incoln": 5423,
      "Gen": 5424,
      "ĠOcean": 5425,
      "ĠNatural": 5426,
      "Ġdiam": 5427,
      "'m": 5428,
      "However": 5429,
      "46": 5430,
      "Ġstorm": 5431,
      "Ġmaximum": 5432,
      "ĠDan": 5433,
      "pre": 5434,
      "fall": 5435,
      "Ġexternal": 5436,
      "Ġnotice": 5437,
      "osal": 5438,
      "Ġconnect": 5439,
      "Ġstock": 5440,
      "Ġfamiliar": 5441,
      "Ġfloor": 5442,
      "Ġlit": 5443,
      "Ġimplic": 5444,
      "Ġinches": 5445,
      "Ġinterests": 5446,
      "ĠReport": 5447,
      "Ġbow": 5448,
      "Ġoriginally": 5449,
      "Ġgrade": 5450,
      "atever": 5451,
      "acters": 5452,
      "cium": 5453,
      "Ġdepth": 5454,
      "Ġwalls": 5455,
      "Ġcolleagues": 5456,
      "Ġpip": 5457,
      "Ġsuc": 5458,
      "ĠMill": 5459,
      "alse": 5460,
      "Ġstem": 5461,
      "Ġdistrict": 5462,
      "apes": 5463,
      "ĠStudies": 5464,
      "Ġdynam": 5465,
      "Ġdial": 5466,
      "ĠFrank": 5467,
      "Ġ1970": 5468,
      "Ġaccompl": 5469,
      "riculum": 5470,
      "Ġinstruction": 5471,
      "Ġaccepted": 5472,
      "âĢĿ.": 5473,
      "hips": 5474,
      "oto": 5475,
      "stream": 5476,
      "Ġrelevant": 5477,
      "Ġvisible": 5478,
      "inding": 5479,
      "ĠAbout": 5480,
      "Ġsan": 5481,
      "47": 5482,
      "Ġconsequences": 5483,
      "mas": 5484,
      "Ġsurrounding": 5485,
      "ss": 5486,
      "Ġshel": 5487,
      "clusion": 5488,
      "war": 5489,
      "Ġcert": 5490,
      "ĠMo": 5491,
      "Ġprinciple": 5492,
      "istant": 5493,
      "Ġlabel": 5494,
      "Ġstraight": 5495,
      "iced": 5496,
      "Ġnarrow": 5497,
      "Ġvegetables": 5498,
      "Ġ1994": 5499,
      "Ġfit": 5500,
      "imens": 5501,
      "Ġcommit": 5502,
      "ĠQue": 5503,
      "DF": 5504,
      "ĠConstitution": 5505,
      "Ġfeeling": 5506,
      "alian": 5507,
      "Ġsatis": 5508,
      "ĠEvery": 5509,
      "Ġmountain": 5510,
      "During": 5511,
      "Ġcrisis": 5512,
      "LE": 5513,
      "Ġfaster": 5514,
      "aud": 5515,
      "Ġspecifically": 5516,
      "Ġprocedures": 5517,
      "Ġfib": 5518,
      "ada": 5519,
      "asure": 5520,
      "Ġteeth": 5521,
      "Ġvulner": 5522,
      "HO": 5523,
      "Ġpaid": 5524,
      "ĠFurther": 5525,
      "Ġlaboratory": 5526,
      "Ġeffectively": 5527,
      "Ġnewsp": 5528,
      "Ġdepos": 5529,
      "dden": 5530,
      "Ġthousand": 5531,
      "ails": 5532,
      "inn": 5533,
      "ĠGeorg": 5534,
      "De": 5535,
      "ĠCarolina": 5536,
      "Re": 5537,
      "Ġseg": 5538,
      "Ġinfected": 5539,
      "Ġdecade": 5540,
      "aturally": 5541,
      "Ġsubs": 5542,
      "99": 5543,
      "Ġdepends": 5544,
      "ĠOut": 5545,
      "long": 5546,
      "Ġcorpor": 5547,
      "Ġflowers": 5548,
      "ĠMichael": 5549,
      "ictionary": 5550,
      "eria": 5551,
      "Ġagency": 5552,
      "?\"": 5553,
      "ipped": 5554,
      "luding": 5555,
      "Ġpig": 5556,
      "ĠTherefore": 5557,
      "Ġfailed": 5558,
      "Ġfocused": 5559,
      "ĠProfessor": 5560,
      "Ġther": 5561,
      "Ġentirely": 5562,
      "ĠDisease": 5563,
      "Ġconcepts": 5564,
      "Ġhunt": 5565,
      "Ġgal": 5566,
      "Ġcontribute": 5567,
      "ĠBur": 5568,
      "uses": 5569,
      "Ġdecline": 5570,
      "Ġ45": 5571,
      "Ġexplains": 5572,
      "Ġaccurate": 5573,
      "onia": 5574,
      "ĠEngine": 5575,
      "Â·": 5576,
      "but": 5577,
      "ĠAnother": 5578,
      "gal": 5579,
      "Ġcomfort": 5580,
      "Ġindeed": 5581,
      "Ġconsists": 5582,
      "Ġshell": 5583,
      "ĠRad": 5584,
      "iated": 5585,
      "Ġpossibly": 5586,
      "ĠPan": 5587,
      "Ġextensive": 5588,
      "Ġsin": 5589,
      "Ġleaving": 5590,
      "Ġflat": 5591,
      "Ġpotentially": 5592,
      "Ġadministration": 5593,
      "ĠNorthern": 5594,
      "Here": 5595,
      "Ġimpossible": 5596,
      "Ġaccomp": 5597,
      "Ġhit": 5598,
      "abil": 5599,
      "Ġju": 5600,
      "resents": 5601,
      "Ġunknown": 5602,
      "ĠAnn": 5603,
      "Ġrelationships": 5604,
      "inf": 5605,
      "ĠProv": 5606,
      "Ġgrown": 5607,
      "ki": 5608,
      "down": 5609,
      "Ġremark": 5610,
      "Ġsolutions": 5611,
      "Our": 5612,
      "ĠRussia": 5613,
      "Ġvehicle": 5614,
      "Ġdogs": 5615,
      "Ġreject": 5616,
      "ĠPenn": 5617,
      "Ġprotected": 5618,
      "Ġexperiments": 5619,
      "Ġcircumst": 5620,
      "ait": 5621,
      "Ġflex": 5622,
      "Ġanx": 5623,
      "last": 5624,
      "ĠTimes": 5625,
      "Ġassistance": 5626,
      "Ġincreasingly": 5627,
      "Ġagriculture": 5628,
      "ĠCamp": 5629,
      "Ġshared": 5630,
      "ĠManagement": 5631,
      "Ġsudden": 5632,
      "ĠParis": 5633,
      "Ġdut": 5634,
      "kins": 5635,
      "Ġfigures": 5636,
      "comp": 5637,
      "Ġastronom": 5638,
      "ĠOx": 5639,
      "ework": 5640,
      "Ġcandid": 5641,
      "icon": 5642,
      "stein": 5643,
      "Im": 5644,
      "ĠDel": 5645,
      "Ġnormally": 5646,
      "Ġawareness": 5647,
      "zy": 5648,
      "Ġvoice": 5649,
      "Ġlik": 5650,
      "icks": 5651,
      "ĠPub": 5652,
      "Ġformal": 5653,
      "Ġmassive": 5654,
      "under": 5655,
      "sembly": 5656,
      "Ġax": 5657,
      "ING": 5658,
      "example": 5659,
      "Ġpictures": 5660,
      "Ġaircraft": 5661,
      "opyright": 5662,
      "Ġwave": 5663,
      "Ġdoubt": 5664,
      "Ġdiox": 5665,
      "Ġhouses": 5666,
      "ymph": 5667,
      "Ġraise": 5668,
      "Ġprincip": 5669,
      "ĠAcademy": 5670,
      "Ġcharacters": 5671,
      "Ġabuse": 5672,
      "ĠKore": 5673,
      "Ġmoral": 5674,
      "Ġhorse": 5675,
      "Ġdiscussed": 5676,
      "Ġwildlife": 5677,
      "celer": 5678,
      "Ġpure": 5679,
      "ĠLand": 5680,
      "reci": 5681,
      "Ġpossess": 5682,
      "Ġfirm": 5683,
      "Ġmix": 5684,
      "Ġlose": 5685,
      "ĠClass": 5686,
      "Ġoption": 5687,
      "ediatric": 5688,
      "rating": 5689,
      "ini": 5690,
      "Ġeastern": 5691,
      "gent": 5692,
      "Ġmur": 5693,
      "Ġutil": 5694,
      "OC": 5695,
      "01": 5696,
      "ĠDisc": 5697,
      "Ġphotograph": 5698,
      "Ġinterf": 5699,
      "earchers": 5700,
      "ĠAgricult": 5701,
      "Ġmarried": 5702,
      "Ġcareer": 5703,
      "Ġod": 5704,
      "add": 5705,
      "Ind": 5706,
      "Ġ300": 5707,
      "Ġprem": 5708,
      "isters": 5709,
      "ca": 5710,
      "mic": 5711,
      "Ġkn": 5712,
      "fish": 5713,
      "Ġsets": 5714,
      "exp": 5715,
      "Ġsubstance": 5716,
      "Ġabsolute": 5717,
      "ĠLong": 5718,
      "Ġadequ": 5719,
      "Ġarms": 5720,
      "ĠId": 5721,
      "Ġdedic": 5722,
      "Ġdescribes": 5723,
      "tic": 5724,
      "Ġmarked": 5725,
      "pping": 5726,
      "Ġopened": 5727,
      "aria": 5728,
      "Ġdiversity": 5729,
      "Ġstret": 5730,
      "irds": 5731,
      "Ġcomprehensive": 5732,
      "Ġmedication": 5733,
      "ribed": 5734,
      "ĠRichard": 5735,
      "inction": 5736,
      "ena": 5737,
      "ka": 5738,
      "Ġexchange": 5739,
      "Ġintellect": 5740,
      "Ġvalid": 5741,
      "Ġkeeping": 5742,
      "Ġappearance": 5743,
      "Ġtiny": 5744,
      "azine": 5745,
      "bing": 5746,
      "bi": 5747,
      "77": 5748,
      "Ġrepeated": 5749,
      "ĠLincoln": 5750,
      "stract": 5751,
      "Ġantibiot": 5752,
      "ĠBudd": 5753,
      "Ġinsurance": 5754,
      "Se": 5755,
      "ĠWall": 5756,
      "Ġ185": 5757,
      "ĠStat": 5758,
      "ĠPeter": 5759,
      "prise": 5760,
      "anguage": 5761,
      "ĠServices": 5762,
      "rine": 5763,
      "Ġrefers": 5764,
      "Ġprecise": 5765,
      "SS": 5766,
      "Ġspend": 5767,
      "Ġfever": 5768,
      "ĠStudy": 5769,
      "Ġworldwide": 5770,
      "amil": 5771,
      "ocracy": 5772,
      "olester": 5773,
      "heast": 5774,
      "inations": 5775,
      "cyclopedia": 5776,
      "Ġcritic": 5777,
      "orter": 5778,
      "Ġunlike": 5779,
      "Ġsounds": 5780,
      "Ġideal": 5781,
      "ĠGlobal": 5782,
      "Why": 5783,
      "aine": 5784,
      "zen": 5785,
      "ĠBank": 5786,
      "Ġbudget": 5787,
      "Ġexcellent": 5788,
      "oned": 5789,
      "Ġclosed": 5790,
      "Ġrepresents": 5791,
      "Ġestimates": 5792,
      "Ġopinion": 5793,
      "called": 5794,
      "asks": 5795,
      "ĠPM": 5796,
      "Ġgun": 5797,
      "ureau": 5798,
      "enses": 5799,
      "Ġcardi": 5800,
      "Ġaffects": 5801,
      "Ġapproaches": 5802,
      "Ġwindow": 5803,
      "Ġchrom": 5804,
      "Ġpossibility": 5805,
      "Ġguidelines": 5806,
      "throp": 5807,
      "Ġremaining": 5808,
      "Ġdecrease": 5809,
      "free": 5810,
      "Dr": 5811,
      "sey": 5812,
      "Ġequival": 5813,
      "bur": 5814,
      "Ġexpensive": 5815,
      "Ġtrain": 5816,
      "Ġ500": 5817,
      "Ġapart": 5818,
      "Ġaw": 5819,
      "ny": 5820,
      "Ġtun": 5821,
      "rovers": 5822,
      "Ġrecon": 5823,
      "elesc": 5824,
      "Ġmovements": 5825,
      "Ġmagnetic": 5826,
      "ĠLike": 5827,
      "ĠCanadian": 5828,
      "Ġneut": 5829,
      "ato": 5830,
      "Ġmolecules": 5831,
      "Ġunderstood": 5832,
      "Ġvolunte": 5833,
      "Ġorganized": 5834,
      "indu": 5835,
      "Ġbeautiful": 5836,
      "omach": 5837,
      "ĠViet": 5838,
      "Ġdebate": 5839,
      "Ġinstitution": 5840,
      "Ġrid": 5841,
      "ĠSciences": 5842,
      "Ġrepresented": 5843,
      "My": 5844,
      "ĠOF": 5845,
      "ĠGold": 5846,
      "Ġfossil": 5847,
      "ĠItaly": 5848,
      "Ġvillage": 5849,
      "Ġthy": 5850,
      "Ġworse": 5851,
      "Ġmanage": 5852,
      "Ġcontained": 5853,
      "ĠYet": 5854,
      "Ġimmun": 5855,
      "uilding": 5856,
      "Ġdust": 5857,
      "ĠTem": 5858,
      "Ġsky": 5859,
      "edu": 5860,
      "Ġnit": 5861,
      "Ġnine": 5862,
      "Ġvessels": 5863,
      "05": 5864,
      "Ġphone": 5865,
      "UN": 5866,
      "Ġinflamm": 5867,
      "ĠSupp": 5868,
      "Ġabund": 5869,
      "Ġexpressed": 5870,
      "CE": 5871,
      "Ġrecognize": 5872,
      "ĠUsing": 5873,
      "ĠâĨ": 5874,
      "Ġplate": 5875,
      "Ġproducing": 5876,
      "Ġcapable": 5877,
      "Ġimpacts": 5878,
      "Ġethnic": 5879,
      "ĠExpl": 5880,
      "Ġrestrict": 5881,
      "Ġwaves": 5882,
      "Ġtraffic": 5883,
      "ĠForest": 5884,
      "pan": 5885,
      "Ġchildhood": 5886,
      "asp": 5887,
      "Ġderived": 5888,
      "Ġbones": 5889,
      "ĠSpain": 5890,
      "Ġbear": 5891,
      "mes": 5892,
      "igenous": 5893,
      "uous": 5894,
      "Ġmuscles": 5895,
      "Ġfounded": 5896,
      "Ġlesson": 5897,
      "comm": 5898,
      "ĠHall": 5899,
      "Ġrevealed": 5900,
      ".'": 5901,
      "Ġscholars": 5902,
      "Ġ1960": 5903,
      "Ġemotional": 5904,
      "Ġunus": 5905,
      "ĠOnly": 5906,
      "iate": 5907,
      "ycl": 5908,
      "hist": 5909,
      "ĠHome": 5910,
      "Ġidentity": 5911,
      "Ġtrad": 5912,
      "Ġlaun": 5913,
      "Ġmoist": 5914,
      "atal": 5915,
      "Ġjustice": 5916,
      "Ġextended": 5917,
      "Ġsupplement": 5918,
      "Ġtwenty": 5919,
      "Ġsurvival": 5920,
      "ĠIII": 5921,
      "Ġamb": 5922,
      "Ġerror": 5923,
      "ua": 5924,
      "ĠResources": 5925,
      "isted": 5926,
      "Ġcomments": 5927,
      "Ġblog": 5928,
      "Ġoccasion": 5929,
      "Ġhoriz": 5930,
      "Ġmuseum": 5931,
      "Ġminimum": 5932,
      "rastructure": 5933,
      "Ġsequence": 5934,
      "heimer": 5935,
      "Ġsecondary": 5936,
      "Ġsensitive": 5937,
      "lets": 5938,
      "ĠBet": 5939,
      "Ġarrived": 5940,
      "Ġbroken": 5941,
      "ĠTw": 5942,
      "Ġstroke": 5943,
      "Ġplat": 5944,
      "Ġfruits": 5945,
      "Ġdestroyed": 5946,
      "Ġgreatly": 5947,
      "organ": 5948,
      "Ġconstitution": 5949,
      "ĠMag": 5950,
      "Ġauthorities": 5951,
      "Ġagreement": 5952,
      "ĠRome": 5953,
      "ĠMad": 5954,
      "Ġdioxide": 5955,
      "ĠCare": 5956,
      "olve": 5957,
      "Ġeld": 5958,
      "ĠHaw": 5959,
      "Ġcomputers": 5960,
      "Ġinvestment": 5961,
      "ĠMartin": 5962,
      "Ġphilosophy": 5963,
      "Ġhem": 5964,
      "Ġfilled": 5965,
      "ĠTHE": 5966,
      "Ġaer": 5967,
      "Ġaren": 5968,
      "Ġobtain": 5969,
      "encing": 5970,
      "Ġopening": 5971,
      "acts": 5972,
      "ĠColor": 5973,
      "Another": 5974,
      "ansion": 5975,
      "Ġing": 5976,
      "Ġfly": 5977,
      "ĠThose": 5978,
      "osh": 5979,
      "Ġconventional": 5980,
      "apping": 5981,
      "Ġleadership": 5982,
      "79": 5983,
      "irty": 5984,
      "ogue": 5985,
      "ctive": 5986,
      "ĠInstead": 5987,
      "Ġvaluable": 5988,
      "EM": 5989,
      "athy": 5990,
      "Ġdin": 5991,
      "Ġlov": 5992,
      "Ġtwice": 5993,
      "Ġpermanent": 5994,
      "Ġgreenhouse": 5995,
      "olesterol": 5996,
      "ĠEnd": 5997,
      "rors": 5998,
      "iana": 5999,
      "ancing": 6000,
      "anged": 6001,
      "ĠGuide": 6002,
      "ĠSecret": 6003,
      "Ġelectronic": 6004,
      "Ġparalle": 6005,
      "ĠKh": 6006,
      "Ġwire": 6007,
      "Ġbrown": 6008,
      "Ġwors": 6009,
      "Ġdescription": 6010,
      "88": 6011,
      "Ġformat": 6012,
      "Ġaqu": 6013,
      "Ġimplementation": 6014,
      "IG": 6015,
      "oston": 6016,
      "inder": 6017,
      "Ġhelpful": 6018,
      "Ġmyth": 6019,
      "ĠRevolution": 6020,
      "ĠBrown": 6021,
      "ĠGal": 6022,
      "Ġmath": 6023,
      "ĠData": 6024,
      "Ġresolution": 6025,
      "Ġobservations": 6026,
      "ibilities": 6027,
      "Ġreform": 6028,
      "IA": 6029,
      "ario": 6030,
      "aser": 6031,
      "Ġepid": 6032,
      "Cont": 6033,
      "ĠColumbia": 6034,
      "ta": 6035,
      "Ġcong": 6036,
      "een": 6037,
      "aph": 6038,
      "Ġdeliver": 6039,
      "ifies": 6040,
      "Ġexists": 6041,
      "Ġedge": 6042,
      "Ġera": 6043,
      "Äģ": 6044,
      "ĠHoly": 6045,
      "Ġtells": 6046,
      "Ġsituations": 6047,
      "ĠOhio": 6048,
      "Ġnecessarily": 6049,
      "Ġmotiv": 6050,
      "Ġreplaced": 6051,
      "Ġstored": 6052,
      "ĠAny": 6053,
      "Ġissued": 6054,
      "Ġperspective": 6055,
      "Ġconcentration": 6056,
      "Ġadministr": 6057,
      "Ġcognitive": 6058,
      "Ġnaturally": 6059,
      "anda": 6060,
      "Ġdepartment": 6061,
      "ĠAustralian": 6062,
      "ye": 6063,
      "icians": 6064,
      "....": 6065,
      "Ġentry": 6066,
      "oster": 6067,
      "struct": 6068,
      "teen": 6069,
      "66": 6070,
      "Ġbio": 6071,
      "Ġstring": 6072,
      "Ġkidney": 6073,
      "Ġcounty": 6074,
      "Ġfewer": 6075,
      "ĠProp": 6076,
      "ĠStreet": 6077,
      "obe": 6078,
      "ĠMu": 6079,
      "Ġsignals": 6080,
      "aska": 6081,
      "ogle": 6082,
      "Ġtopics": 6083,
      "ester": 6084,
      "Ġparties": 6085,
      "ĠFort": 6086,
      "Ġpref": 6087,
      "ĠLeg": 6088,
      "ĠVis": 6089,
      "mary": 6090,
      "heric": 6091,
      "Ġorganisms": 6092,
      "Last": 6093,
      "umes": 6094,
      "Ġattached": 6095,
      "Ġgrav": 6096,
      "Ġdaughter": 6097,
      "ĠPop": 6098,
      "Ġvolcan": 6099,
      "SD": 6100,
      "ĠEmpire": 6101,
      "Ã¼": 6102,
      "ĠPower": 6103,
      "Ġtalking": 6104,
      "cher": 6105,
      "Ġdiscipl": 6106,
      "Ġcalcium": 6107,
      "Ġproduces": 6108,
      "ĠTor": 6109,
      "Ġneither": 6110,
      "ih": 6111,
      "Ġsell": 6112,
      "Ġemp": 6113,
      "Ġtal": 6114,
      "ĠAgency": 6115,
      "Ġcouple": 6116,
      "Ġphysics": 6117,
      "Ġaf": 6118,
      "Ġyounger": 6119,
      "Ġyield": 6120,
      "iform": 6121,
      "RA": 6122,
      "hemical": 6123,
      "Ġmarriage": 6124,
      "Do": 6125,
      "Ġmaps": 6126,
      "Ġran": 6127,
      "Ġintroduction": 6128,
      "Ġslowly": 6129,
      "Ġdoor": 6130,
      "lv": 6131,
      "ascular": 6132,
      "Ġdiscrim": 6133,
      "kes": 6134,
      "Ġstages": 6135,
      "Ġplaying": 6136,
      "ĠWood": 6137,
      "Ġsurvive": 6138,
      "agers": 6139,
      "Ġextract": 6140,
      "zil": 6141,
      "Ġpoet": 6142,
      "comes": 6143,
      "Ġadding": 6144,
      "Ġdiagnosed": 6145,
      "oral": 6146,
      "ints": 6147,
      "Ġdifficulty": 6148,
      "idden": 6149,
      "Ġgender": 6150,
      "hand": 6151,
      "uels": 6152,
      "ĠValley": 6153,
      "ĠFour": 6154,
      "Ġschem": 6155,
      "Ġserver": 6156,
      "ĠIran": 6157,
      "Ġjoined": 6158,
      "Ġvote": 6159,
      "Ġshut": 6160,
      "CT": 6161,
      "level": 6162,
      "ĠEastern": 6163,
      "ĠAdministration": 6164,
      "Ġmild": 6165,
      "Ġachieved": 6166,
      "Ġabnormal": 6167,
      "Ġrecip": 6168,
      "ĠFree": 6169,
      "everal": 6170,
      "ĠBoard": 6171,
      "Ġgone": 6172,
      "ĠCommon": 6173,
      "Ġvehicles": 6174,
      "Ã³": 6175,
      "Ġstomach": 6176,
      "orrow": 6177,
      "Ġlimits": 6178,
      "Ġasthma": 6179,
      "Ġacts": 6180,
      "Ġpu": 6181,
      "ita": 6182,
      "IL": 6183,
      "âĢĿ,": 6184,
      "Ġnegot": 6185,
      "ĠIN": 6186,
      "Ġtail": 6187,
      "stone": 6188,
      "Ġimmediate": 6189,
      "En": 6190,
      "Ġimper": 6191,
      "95": 6192,
      "Ġmetab": 6193,
      "Ġdelay": 6194,
      "Ġlandscape": 6195,
      "Note": 6196,
      "Ġobesity": 6197,
      "Ġdepart": 6198,
      "Ġindicates": 6199,
      "Ġcart": 6200,
      "Ġappreci": 6201,
      "Ġsports": 6202,
      "Ġ1993": 6203,
      "Ġmedium": 6204,
      "bran": 6205,
      "Ġpregnant": 6206,
      "inity": 6207,
      "Ġwel": 6208,
      "gans": 6209,
      "Us": 6210,
      "Ġlegislation": 6211,
      "tra": 6212,
      "Ġrein": 6213,
      "Ġpublication": 6214,
      "Ġenhance": 6215,
      "Ġgather": 6216,
      "ĠLab": 6217,
      "Ġrecovery": 6218,
      "omic": 6219,
      "Ġassign": 6220,
      "Ġchart": 6221,
      "Ġopposite": 6222,
      "Ġpretty": 6223,
      "Ġedition": 6224,
      "Ġcontrovers": 6225,
      "ulty": 6226,
      "liam": 6227,
      "zheimer": 6228,
      "Ġfalse": 6229,
      "Ġcircumstances": 6230,
      "ĠUSA": 6231,
      "Ġparam": 6232,
      "Ġaccounts": 6233,
      "ĠDirector": 6234,
      "ĠAtlantic": 6235,
      "Ġfill": 6236,
      "orous": 6237,
      "Ġ1992": 6238,
      "ployment": 6239,
      "Ġmechanism": 6240,
      "Ġlaunch": 6241,
      "Ġscan": 6242,
      "Ġroutine": 6243,
      "ĠJeff": 6244,
      "Ġtrials": 6245,
      "Ġneck": 6246,
      "HD": 6247,
      "ĠExp": 6248,
      "Pe": 6249,
      "Ġregist": 6250,
      "Ġinsects": 6251,
      "42": 6252,
      "Ġsomewhat": 6253,
      "41": 6254,
      "43": 6255,
      "Ġterritory": 6256,
      "la": 6257,
      "Ġgrew": 6258,
      "Ġmixed": 6259,
      "Ġsurf": 6260,
      "Ġremote": 6261,
      "Ġsod": 6262,
      "Ġcars": 6263,
      "ĠAtt": 6264,
      "Ġcarefully": 6265,
      "Ġacceler": 6266,
      "ĠFamily": 6267,
      "Ġinstruments": 6268,
      "Ġwitness": 6269,
      "ensions": 6270,
      "Ġsmoke": 6271,
      "Ġdefe": 6272,
      "Ġlocations": 6273,
      "Ġsupplies": 6274,
      "85": 6275,
      "ĠExper": 6276,
      "Ġdebt": 6277,
      "Ġcoastal": 6278,
      "tenance": 6279,
      "Ġanswers": 6280,
      ":||": 6281,
      "Ġinfrastructure": 6282,
      "Since": 6283,
      "Ġdensity": 6284,
      "Ġrow": 6285,
      "ailed": 6286,
      "igation": 6287,
      "Ġroots": 6288,
      "Ġpoison": 6289,
      "Ġseeing": 6290,
      "ceived": 6291,
      "ĠBre": 6292,
      "Ġagreed": 6293,
      "IP": 6294,
      "otion": 6295,
      "ults": 6296,
      "Ġcrim": 6297,
      "Ġrub": 6298,
      "Ġgenerated": 6299,
      "Ġphotos": 6300,
      "itudes": 6301,
      "Ġpromin": 6302,
      "Ġdriving": 6303,
      "ora": 6304,
      "Ġhus": 6305,
      "Ġcontamin": 6306,
      "Ġseemed": 6307,
      "Ġsuffering": 6308,
      "Ġ32": 6309,
      "html": 6310,
      "Ġannounced": 6311,
      "Ġhistoric": 6312,
      "Ġforth": 6313,
      "ĠBoston": 6314,
      "Ġdream": 6315,
      "Ġnone": 6316,
      "reland": 6317,
      "Ġmanaged": 6318,
      "Ġphr": 6319,
      "Ġattend": 6320,
      "ĠParty": 6321,
      "struction": 6322,
      "Ġoral": 6323,
      "Ġfertil": 6324,
      "liament": 6325,
      "top": 6326,
      "Ġcamera": 6327,
      "iah": 6328,
      "Ġcloud": 6329,
      "Ġconsumers": 6330,
      "Ġconsistent": 6331,
      "ĠKnow": 6332,
      "ola": 6333,
      "Ġrising": 6334,
      "73": 6335,
      "ella": 6336,
      "Ġcurriculum": 6337,
      "Ġpus": 6338,
      "Ġpowers": 6339,
      "then": 6340,
      "Ġtube": 6341,
      "ĠBr": 6342,
      "Ġarter": 6343,
      "Ġreaders": 6344,
      "AA": 6345,
      "Ġunable": 6346,
      "Ġtoler": 6347,
      "Ġdrawn": 6348,
      "umin": 6349,
      "Pl": 6350,
      "Ġwish": 6351,
      "Ġspeaking": 6352,
      "Ġequivalent": 6353,
      "Ġ36": 6354,
      "Ġdiverse": 6355,
      "Ġlegisl": 6356,
      "Te": 6357,
      "elled": 6358,
      "Ġprove": 6359,
      "aked": 6360,
      "ĠVict": 6361,
      "Ġemployment": 6362,
      "Ġtouch": 6363,
      "osion": 6364,
      "Ġislands": 6365,
      "gu": 6366,
      "Ġacknow": 6367,
      "Ġtransmission": 6368,
      "BS": 6369,
      "ĠRock": 6370,
      "flow": 6371,
      "EP": 6372,
      "look": 6373,
      "Ġcolors": 6374,
      "Ġsupposed": 6375,
      "Ġregularly": 6376,
      "Ġvital": 6377,
      "ĠGree": 6378,
      "Ġuniversity": 6379,
      "Ġelectron": 6380,
      "ifications": 6381,
      "Ġpra": 6382,
      "ĠScott": 6383,
      "produ": 6384,
      "Ġcatch": 6385,
      "Ġnearby": 6386,
      "Ġnutrients": 6387,
      "Ġaccum": 6388,
      "Ġsurve": 6389,
      "Ġgenerate": 6390,
      "Ġhypothes": 6391,
      "ĠDu": 6392,
      "Ġrocks": 6393,
      "espread": 6394,
      "Ġsight": 6395,
      "Ġprohib": 6396,
      "Ġuns": 6397,
      "Can": 6398,
      "Ġafford": 6399,
      "Ġveter": 6400,
      "Ġsucceed": 6401,
      "ĠStep": 6402,
      "Ġpercentage": 6403,
      "ĠClimate": 6404,
      "06": 6405,
      "Ġswitch": 6406,
      "ĠAccess": 6407,
      "Ġships": 6408,
      "ĠWik": 6409,
      "Ġaccident": 6410,
      "Ġstudying": 6411,
      "Ġ75": 6412,
      "Ġtumor": 6413,
      "hered": 6414,
      "Ġnurs": 6415,
      "asive": 6416,
      "ĠFe": 6417,
      "anging": 6418,
      "Ġconscious": 6419,
      "Ġdeclared": 6420,
      "car": 6421,
      "Ġnest": 6422,
      "Ġapproved": 6423,
      "agon": 6424,
      "Ġtips": 6425,
      "Ġfract": 6426,
      "Ġsuffer": 6427,
      "eenth": 6428,
      "Ġtow": 6429,
      "Ġlegs": 6430,
      "Ġknows": 6431,
      "Ġimproving": 6432,
      "weight": 6433,
      "Stud": 6434,
      "Ġprepare": 6435,
      "rd": 6436,
      "ĠGood": 6437,
      "May": 6438,
      "Ġchain": 6439,
      "Ġestimate": 6440,
      "Ġdollars": 6441,
      "Ġconstit": 6442,
      "Ġstands": 6443,
      "08": 6444,
      "vironments": 6445,
      "Ġminim": 6446,
      "Ġelected": 6447,
      "Ġregulations": 6448,
      "Ġfoundation": 6449,
      "Ġblow": 6450,
      "Ġfixed": 6451,
      "ĠSol": 6452,
      "sylv": 6453,
      "Ġtransportation": 6454,
      "ĠSpecial": 6455,
      "igan": 6456,
      "Ġdigest": 6457,
      "arant": 6458,
      "rot": 6459,
      "Ġthor": 6460,
      "ĠIreland": 6461,
      "Ġfacilit": 6462,
      "Ġcos": 6463,
      "ĠRob": 6464,
      "ĠDarwin": 6465,
      "Ġchosen": 6466,
      "Ġspok": 6467,
      "emia": 6468,
      "Ġfighting": 6469,
      "Ġshot": 6470,
      "Ġresulted": 6471,
      "Ġath": 6472,
      "ĠEth": 6473,
      "Ġleaf": 6474,
      "ĠAlzheimer": 6475,
      "zed": 6476,
      "oven": 6477,
      "Ġingred": 6478,
      "Ġcommission": 6479,
      "Ġaband": 6480,
      "Ġlect": 6481,
      "Ġcholesterol": 6482,
      "UR": 6483,
      "Ġstick": 6484,
      "Ġcourses": 6485,
      "Ġsuccessfully": 6486,
      "Ġhousing": 6487,
      "ĠDet": 6488,
      "ritis": 6489,
      "Ġentered": 6490,
      "Ġinvolving": 6491,
      "Ġpull": 6492,
      "ishop": 6493,
      "Ġchoices": 6494,
      "Ġemployed": 6495,
      "Ġearthqu": 6496,
      "Ġborder": 6497,
      "rary": 6498,
      "rey": 6499,
      "itter": 6500,
      "ĠIndians": 6501,
      "ĠGeorgia": 6502,
      "Bl": 6503,
      "Ġpositions": 6504,
      "Ġlaunched": 6505,
      "uing": 6506,
      "etics": 6507,
      "Ġ1991": 6508,
      "Ġsatellite": 6509,
      "Ġundert": 6510,
      "alysis": 6511,
      "Ġcrow": 6512,
      "CS": 6513,
      "erals": 6514,
      "ĠCult": 6515,
      "Ġsecure": 6516,
      "Ġ65": 6517,
      "phone": 6518,
      "Ġevaluation": 6519,
      "ĠNative": 6520,
      "Ġexamine": 6521,
      "Ġsigned": 6522,
      "ĠEncyclopedia": 6523,
      "isco": 6524,
      "Ġinjuries": 6525,
      "Ġflag": 6526,
      "Ġprovider": 6527,
      "ditional": 6528,
      "Ġelection": 6529,
      "Ġ150": 6530,
      "ivery": 6531,
      "ĠRoyal": 6532,
      "Ġfunds": 6533,
      "Ġpainting": 6534,
      "Your": 6535,
      "Ġfacility": 6536,
      "Ġcup": 6537,
      "Ġtransition": 6538,
      "Ġboys": 6539,
      "rison": 6540,
      "Ġmobile": 6541,
      "ĠSant": 6542,
      "acing": 6543,
      "rob": 6544,
      "Ġlin": 6545,
      "Ġboy": 6546,
      "ĠLu": 6547,
      "angered": 6548,
      "Ġlies": 6549,
      "antly": 6550,
      "Ġfeeding": 6551,
      "irt": 6552,
      "Ġbabies": 6553,
      "Ġstruggle": 6554,
      "dis": 6555,
      "vard": 6556,
      "esis": 6557,
      "asters": 6558,
      "Ġwhatever": 6559,
      "ĠRom": 6560,
      "ĠExt": 6561,
      "Ġbiology": 6562,
      "Ġcryst": 6563,
      "Ġdecide": 6564,
      "utch": 6565,
      "including": 6566,
      "Ġplatform": 6567,
      "Ġcomposed": 6568,
      "Ġru": 6569,
      "Ġinvent": 6570,
      "Ġzone": 6571,
      "ione": 6572,
      "Ġrivers": 6573,
      "pet": 6574,
      "opes": 6575,
      "Ġturns": 6576,
      "'d": 6577,
      "how": 6578,
      "Ġdomin": 6579,
      "cons": 6580,
      "Ġphysician": 6581,
      "',": 6582,
      "Ġlayers": 6583,
      "Ġcrime": 6584,
      "Ġreserved": 6585,
      "ooth": 6586,
      "operation": 6587,
      "Ġcomparison": 6588,
      "Ġcomposition": 6589,
      "Ġultimately": 6590,
      "DP": 6591,
      "Ġdivision": 6592,
      "icide": 6593,
      "Ġpapers": 6594,
      "Ġdose": 6595,
      "osph": 6596,
      "sylvania": 6597,
      "Ġconference": 6598,
      "Ġhero": 6599,
      "Ġdesire": 6600,
      "Ġsweet": 6601,
      "urrent": 6602,
      "inking": 6603,
      "Ġaward": 6604,
      "03": 6605,
      "Ġwidespread": 6606,
      "ĠLaboratory": 6607,
      "ĠItalian": 6608,
      "Ġgluc": 6609,
      "09": 6610,
      "ĠKingdom": 6611,
      "71": 6612,
      "arn": 6613,
      "xts": 6614,
      "iodiversity": 6615,
      "bour": 6616,
      "Ġstanding": 6617,
      "Ġvariable": 6618,
      "ĠDou": 6619,
      "Ġcloser": 6620,
      "Ġdistur": 6621,
      "usal": 6622,
      "Ġsharing": 6623,
      "Ġregul": 6624,
      "Ġlessons": 6625,
      "ĠSurvey": 6626,
      "74": 6627,
      "orses": 6628,
      "Ġrecommendations": 6629,
      "ribe": 6630,
      "Ã¶": 6631,
      "Ġends": 6632,
      "Ġexplanation": 6633,
      "CL": 6634,
      "Ġfourth": 6635,
      "Ġpassage": 6636,
      "Ġtrouble": 6637,
      "uts": 6638,
      "lishing": 6639,
      "Ġlifest": 6640,
      "Ġmice": 6641,
      "anes": 6642,
      "Ġrelation": 6643,
      "Ġfeelings": 6644,
      "Ġsmoking": 6645,
      "Ġmeters": 6646,
      "iration": 6647,
      "Ġclust": 6648,
      "Ġinfant": 6649,
      "Ġsections": 6650,
      "Ġgenerations": 6651,
      "urches": 6652,
      "ĠSup": 6653,
      "ĠPolic": 6654,
      "Ġsole": 6655,
      "Ġpounds": 6656,
      "roat": 6657,
      "Ġcultiv": 6658,
      "Ġassociation": 6659,
      "ĠMel": 6660,
      "Ġshift": 6661,
      "Ġcoff": 6662,
      "ĠThrough": 6663,
      "while": 6664,
      "Ġinher": 6665,
      "Ġbread": 6666,
      "ificial": 6667,
      "Ġslaves": 6668,
      "Ġchest": 6669,
      "Ġmerely": 6670,
      "Ġintellectual": 6671,
      "ĠAngel": 6672,
      "Ġprincipal": 6673,
      "Ġintervention": 6674,
      "Ġweapons": 6675,
      "IM": 6676,
      "Ġcm": 6677,
      "Ġinsulin": 6678,
      "Ġmode": 6679,
      "lines": 6680,
      "Ġpreval": 6681,
      "Ġcompetition": 6682,
      "Ġwants": 6683,
      "Ġcenters": 6684,
      "Ġdestruction": 6685,
      "Ġtowns": 6686,
      "Ġtheore": 6687,
      "Ġgalax": 6688,
      "ĠScot": 6689,
      "Ġnerve": 6690,
      "erent": 6691,
      "ĠLearning": 6692,
      "Ġstrict": 6693,
      "Ġinner": 6694,
      "alls": 6695,
      "ĠPC": 6696,
      "ĠSk": 6697,
      "ĠMer": 6698,
      "Ġscript": 6699,
      "Ġsubstances": 6700,
      "ĠLib": 6701,
      "Ġnetworks": 6702,
      "Ġexpansion": 6703,
      "Ġdownload": 6704,
      "Ġstrongly": 6705,
      "ĠÐ": 6706,
      "Ġtasks": 6707,
      "Ġalle": 6708,
      "Ġtruly": 6709,
      "orph": 6710,
      "Ġmit": 6711,
      "ĠIslamic": 6712,
      "ĠAri": 6713,
      "ĠWindows": 6714,
      "Qu": 6715,
      "adel": 6716,
      "Ġreader": 6717,
      "ĠSwed": 6718,
      "Ġmand": 6719,
      "ĠMa": 6720,
      "Ġsubm": 6721,
      "89": 6722,
      "Ġparallel": 6723,
      "ĠWildlife": 6724,
      "Ġmales": 6725,
      "ĠList": 6726,
      "ricts": 6727,
      "ĠJohnson": 6728,
      "Ġrank": 6729,
      "Ġintelligence": 6730,
      "earing": 6731,
      "ĠConservation": 6732,
      "abits": 6733,
      "ĠEarly": 6734,
      "Ġbomb": 6735,
      "Ġenvironments": 6736,
      "Ġmatters": 6737,
      "ĠâĨĳ": 6738,
      "ĠGrand": 6739,
      "Ġwilling": 6740,
      "anc": 6741,
      "ocation": 6742,
      "Ġwriter": 6743,
      "Ġarrest": 6744,
      "ethod": 6745,
      "Ġhonor": 6746,
      "Ġended": 6747,
      "Ġexception": 6748,
      "Ġanxiety": 6749,
      "Ġdefine": 6750,
      "Rec": 6751,
      "oir": 6752,
      "Ġintake": 6753,
      "72": 6754,
      "Ġcolumn": 6755,
      "Ġparticipate": 6756,
      "Ġfishing": 6757,
      "Ġbreathing": 6758,
      "ĠBrazil": 6759,
      "mail": 6760,
      "Ġfrequent": 6761,
      "02": 6762,
      "ĠTre": 6763,
      "ading": 6764,
      "2012": 6765,
      "urt": 6766,
      "riers": 6767,
      "Ġeditor": 6768,
      "ĠCoast": 6769,
      "arth": 6770,
      "ĠHeb": 6771,
      "Ġdedicated": 6772,
      "Ġfab": 6773,
      "Ġimpl": 6774,
      "rin": 6775,
      "Ġrecept": 6776,
      "occ": 6777,
      "Ġflo": 6778,
      "Ġinhib": 6779,
      "ercury": 6780,
      "Ġov": 6781,
      "Ġ(\"": 6782,
      "inson": 6783,
      "ĠÂ©": 6784,
      "Ġsupports": 6785,
      "Ġrarely": 6786,
      "04": 6787,
      "Ġofficers": 6788,
      "Ġmedicines": 6789,
      "icit": 6790,
      "Ġarrange": 6791,
      "mentia": 6792,
      "Ġdisaster": 6793,
      "Ġsimpl": 6794,
      "ĠAmong": 6795,
      "Ġwalking": 6796,
      "Ġalter": 6797,
      "Ġcontrols": 6798,
      "ication": 6799,
      "Ġorgans": 6800,
      "gs": 6801,
      "Ġcav": 6802,
      "Ġlie": 6803,
      "Ġroof": 6804,
      "fortunately": 6805,
      "erior": 6806,
      "Ġscreening": 6807,
      "Ġpolitics": 6808,
      "alm": 6809,
      "ĠPrevention": 6810,
      "hop": 6811,
      "ĠEff": 6812,
      "Ġconsiderable": 6813,
      "Ġindicated": 6814,
      "Ġmaintained": 6815,
      "Ġjoin": 6816,
      "Ġprofessionals": 6817,
      "Ġcapture": 6818,
      "Ġ1950": 6819,
      "Ġmechanisms": 6820,
      "Ġenable": 6821,
      "eor": 6822,
      "Ġtons": 6823,
      "Ġteen": 6824,
      "ĠGard": 6825,
      "eper": 6826,
      "medi": 6827,
      "oples": 6828,
      "ĠBab": 6829,
      "Ġexplo": 6830,
      "ĠDen": 6831,
      "ĠNaz": 6832,
      "ĠTime": 6833,
      "Ġinsert": 6834,
      "inally": 6835,
      "Of": 6836,
      "word": 6837,
      "isk": 6838,
      "ishment": 6839,
      "Ġdemonstrated": 6840,
      "Ġahead": 6841,
      "Ġprev": 6842,
      "Ġacres": 6843,
      "Ġdrought": 6844,
      "Ġcounsel": 6845,
      "Ġparticipation": 6846,
      "cul": 6847,
      "Ġzero": 6848,
      "ĠIP": 6849,
      "Ġpharm": 6850,
      "Ġopposed": 6851,
      "Ġevil": 6852,
      "ĠMake": 6853,
      "Ġcreates": 6854,
      "Ġdrawing": 6855,
      "Ġhole": 6856,
      "Ġille": 6857,
      "ĠTV": 6858,
      "Ġframe": 6859,
      "ifest": 6860,
      "Ġcategories": 6861,
      "istent": 6862,
      "Ġscientist": 6863,
      "Ġarchitecture": 6864,
      "Int": 6865,
      "ette": 6866,
      "peror": 6867,
      "Ġpurchase": 6868,
      "ĠCap": 6869,
      "Ġstarts": 6870,
      "Ġruns": 6871,
      "Ġfemales": 6872,
      "itals": 6873,
      "Ġcultures": 6874,
      "Because": 6875,
      "Ġpair": 6876,
      "gi": 6877,
      "Ġnoise": 6878,
      "ĠFund": 6879,
      "otton": 6880,
      "ady": 6881,
      "ĠPennsylvania": 6882,
      "wing": 6883,
      "Ġmodified": 6884,
      "ashion": 6885,
      "Ġreceiving": 6886,
      "Ġcircuit": 6887,
      "prof": 6888,
      "herent": 6889,
      "Ġpool": 6890,
      "Ġnewly": 6891,
      "ĠBill": 6892,
      "scale": 6893,
      "Ġreactions": 6894,
      "Ġarchae": 6895,
      "ĠOxford": 6896,
      "itative": 6897,
      "Ġindependence": 6898,
      "Ġintense": 6899,
      "Ġresponses": 6900,
      "Ġmaintenance": 6901,
      "Ġimprovement": 6902,
      "ivered": 6903,
      "Ġadequate": 6904,
      "Ġske": 6905,
      "Ġdeer": 6906,
      "Ġincl": 6907,
      "Ġproved": 6908,
      "avery": 6909,
      "ĠDivision": 6910,
      "ippi": 6911,
      "Ġbusinesses": 6912,
      "ĠDistrict": 6913,
      "Ġenemy": 6914,
      "Ġsuitable": 6915,
      "ĠAsian": 6916,
      "ourage": 6917,
      "Ġoutbre": 6918,
      "Ġtall": 6919,
      "Ġplays": 6920,
      "Ġroute": 6921,
      "enza": 6922,
      "Ġstable": 6923,
      "Ġframework": 6924,
      "Ġratio": 6925,
      "Ġbranch": 6926,
      "class": 6927,
      "Ġtheories": 6928,
      "ĠLy": 6929,
      "Ġburning": 6930,
      "ĠConn": 6931,
      "ansas": 6932,
      "Ġbanks": 6933,
      "uter": 6934,
      "Ġoblig": 6935,
      "rays": 6936,
      "Ġthoughts": 6937,
      "Ġcompounds": 6938,
      "Ġconsumer": 6939,
      "Ġcaptured": 6940,
      "ĠCommunity": 6941,
      "bles": 6942,
      "tage": 6943,
      "Ġsought": 6944,
      "ounded": 6945,
      "Ġunderlying": 6946,
      "Ġlots": 6947,
      "Ġplus": 6948,
      "ĠConvention": 6949,
      "Ġcrucial": 6950,
      "Ġproportion": 6951,
      "Ġmanufacturing": 6952,
      "ĠIrish": 6953,
      "ighter": 6954,
      "idential": 6955,
      "Ġinstalled": 6956,
      "Ġspending": 6957,
      "Ġemployees": 6958,
      "Ġproof": 6959,
      "orders": 6960,
      "ĠMen": 6961,
      "opic": 6962,
      "Ġintegrated": 6963,
      "Ġexamined": 6964,
      "li": 6965,
      "Ġholds": 6966,
      "Ġconfig": 6967,
      "\")": 6968,
      "Ġvulnerable": 6969,
      "CD": 6970,
      "abled": 6971,
      "Ġmac": 6972,
      "Ġtexts": 6973,
      "Ġconstructed": 6974,
      "Ġblind": 6975,
      "ĠLin": 6976,
      "Ġartists": 6977,
      "Ġom": 6978,
      "Ġmathematics": 6979,
      "Ġmembran": 6980,
      "ĠVer": 6981,
      "Ġprompt": 6982,
      "ĠJac": 6983,
      "Ġhydrogen": 6984,
      "Ġempt": 6985,
      "Ġbeliefs": 6986,
      "Ġkilomet": 6987,
      "Ġsupporting": 6988,
      "Ġtract": 6989,
      "http": 6990,
      "Ġtropical": 6991,
      "bar": 6992,
      "Ġlymph": 6993,
      "Ġmeasurements": 6994,
      "she": 6995,
      "isdom": 6996,
      "Ġrig": 6997,
      "Ġcommitted": 6998,
      "Ġconfirmed": 6999,
      "Ġrab": 7000,
      "hi": 7001,
      "Ġdefense": 7002,
      "uset": 7003,
      "Ġclin": 7004,
      "Ġsolve": 7005,
      "Ġtrip": 7006,
      "Ġrecognition": 7007,
      "Ġbiggest": 7008,
      "rost": 7009,
      "ĠStr": 7010,
      "Ġmarkets": 7011,
      "Ġoutcomes": 7012,
      "Ġjump": 7013,
      "Ġunusual": 7014,
      ")|": 7015,
      "asty": 7016,
      "Ġpeak": 7017,
      "ether": 7018,
      "aded": 7019,
      "ĠHill": 7020,
      "Ġordered": 7021,
      "07": 7022,
      "Ġagents": 7023,
      "Ġdanger": 7024,
      "Ġhun": 7025,
      "ĠLar": 7026,
      "Ġgro": 7027,
      "EE": 7028,
      "ĠPract": 7029,
      "ĠWhere": 7030,
      "Figure": 7031,
      "Ġguarant": 7032,
      "ĠChange": 7033,
      "ĠAff": 7034,
      "Ġclaimed": 7035,
      "Ġjourney": 7036,
      "Ġfasc": 7037,
      "Ġmanip": 7038,
      "ĠColorado": 7039,
      "otherapy": 7040,
      "Ġwhereas": 7041,
      "Ġsteel": 7042,
      "Ġbehaviors": 7043,
      "ĠSupreme": 7044,
      "Ġhandle": 7045,
      "Ġpron": 7046,
      "ĠYoung": 7047,
      "ĠNetwork": 7048,
      "Ġlists": 7049,
      "Ġwithd": 7050,
      "erman": 7051,
      "Ġoperate": 7052,
      "ima": 7053,
      "ĠConference": 7054,
      "usetts": 7055,
      "Ġaspect": 7056,
      "iral": 7057,
      "ĠCambridge": 7058,
      "ocy": 7059,
      "achusetts": 7060,
      "using": 7061,
      "ĠCre": 7062,
      "ĠPlease": 7063,
      "Ġsenior": 7064,
      "Ġshock": 7065,
      "Ġdelivery": 7066,
      "Ġmicrosc": 7067,
      "Ġcarrying": 7068,
      "Ġwasn": 7069,
      "ĠAdv": 7070,
      "Ġdemonstrate": 7071,
      "mod": 7072,
      "Ġappeal": 7073,
      "Ġwrites": 7074,
      "Ġinterpre": 7075,
      "ĠÎ": 7076,
      "ano": 7077,
      "Ġprotocol": 7078,
      "zer": 7079,
      "ĠGoogle": 7080,
      "Ġappointed": 7081,
      "pd": 7082,
      "hav": 7083,
      "odox": 7084,
      "68": 7085,
      "OL": 7086,
      "outs": 7087,
      "Ġexamination": 7088,
      "ĠNov": 7089,
      "rolled": 7090,
      "Ġcutting": 7091,
      "Ġprinted": 7092,
      "Not": 7093,
      "Ġmountains": 7094,
      "Ġgradually": 7095,
      "iratory": 7096,
      "adder": 7097,
      "ĠChristmas": 7098,
      "Ġcited": 7099,
      "Ġcovers": 7100,
      "Ġroughly": 7101,
      "Ġattempts": 7102,
      "ENT": 7103,
      "Ġscar": 7104,
      "Ġconven": 7105,
      "Ġreef": 7106,
      "Ġtelevision": 7107,
      "Ġarts": 7108,
      "ĠOrganization": 7109,
      "Ġsubstantial": 7110,
      "olk": 7111,
      "Ġconclusion": 7112,
      "ums": 7113,
      "quar": 7114,
      "Ġacids": 7115,
      "onomy": 7116,
      "Ġconqu": 7117,
      "ĠPet": 7118,
      "orith": 7119,
      "apse": 7120,
      "Ġautism": 7121,
      "Ġharmful": 7122,
      "ĠHospital": 7123,
      "ograp": 7124,
      "Ġtransf": 7125,
      "ĠPrince": 7126,
      "Ġsoul": 7127,
      "Ġrelief": 7128,
      "elescope": 7129,
      "ĠWhe": 7130,
      "ĠBC": 7131,
      "ucky": 7132,
      "Ġcattle": 7133,
      "akistan": 7134,
      "uality": 7135,
      "ĠSecurity": 7136,
      "Ġescape": 7137,
      "Ġstre": 7138,
      "Ġorbit": 7139,
      "ipping": 7140,
      "Ġnerv": 7141,
      "ĠSil": 7142,
      "utrition": 7143,
      "Ġsubsequent": 7144,
      "Ġeffectiveness": 7145,
      "lymp": 7146,
      "ĠAge": 7147,
      "Ġstreet": 7148,
      "acher": 7149,
      "ostic": 7150,
      "issippi": 7151,
      "Ġsacr": 7152,
      "inois": 7153,
      "Ġhusband": 7154,
      "Ġcontemporary": 7155,
      "Ġfurn": 7156,
      "illa": 7157,
      "ĠGulf": 7158,
      "arsh": 7159,
      "Ġholding": 7160,
      "Ġlaid": 7161,
      "irth": 7162,
      "Comp": 7163,
      "Ġorient": 7164,
      "Ġinstructions": 7165,
      "Ġdelivered": 7166,
      "oured": 7167,
      "unicip": 7168,
      "Ġcancers": 7169,
      "ĠDesign": 7170,
      "Read": 7171,
      "Ġwine": 7172,
      "ĠVictor": 7173,
      "Ġtrained": 7174,
      "adelph": 7175,
      "Ġconcerning": 7176,
      "def": 7177,
      "Ġoptim": 7178,
      "Ġhighlight": 7179,
      "Ġmachines": 7180,
      "inite": 7181,
      "ĠForce": 7182,
      "raining": 7183,
      "Ġinflammation": 7184,
      "Le": 7185,
      "Ġswim": 7186,
      "Ġcriteria": 7187,
      "ĠFrancisco": 7188,
      "ĠMS": 7189,
      "ypes": 7190,
      "izer": 7191,
      "theless": 7192,
      "ĠSuper": 7193,
      "Ġturb": 7194,
      "Over": 7195,
      "erly": 7196,
      "Ġnarr": 7197,
      "cre": 7198,
      "Ġwait": 7199,
      "Ġcopyright": 7200,
      "olesc": 7201,
      "Ġcolour": 7202,
      "ani": 7203,
      "Ġinfants": 7204,
      "etime": 7205,
      "ĠSecretary": 7206,
      "ĠDig": 7207,
      "rous": 7208,
      "Ġrefuge": 7209,
      "Ġplanets": 7210,
      "Ġobjective": 7211,
      "Ġ400": 7212,
      "HA": 7213,
      "Ġfold": 7214,
      "Ġcompris": 7215,
      "ĠBureau": 7216,
      "Ġroads": 7217,
      "ĠHeart": 7218,
      "Ġpassing": 7219,
      "hyth": 7220,
      "uracy": 7221,
      "Ġmos": 7222,
      "Ed": 7223,
      "Ġnose": 7224,
      "Ġangle": 7225,
      "regation": 7226,
      "Ġid": 7227,
      "ĠSir": 7228,
      "ĠPo": 7229,
      "Am": 7230,
      "Ġbreeding": 7231,
      "ĠWho": 7232,
      "Ġviruses": 7233,
      "iary": 7234,
      "'.": 7235,
      "Ġuncertain": 7236,
      "64": 7237,
      "ounce": 7238,
      "orted": 7239,
      "Ġdirected": 7240,
      "ĠFather": 7241,
      "Ġenforce": 7242,
      "ĠMichigan": 7243,
      "Ġneighborhood": 7244,
      "Ġfairly": 7245,
      "Ġmining": 7246,
      "Ġplane": 7247,
      "Ġfiber": 7248,
      "adelphia": 7249,
      "Ġdistributed": 7250,
      "Ġgiant": 7251,
      "ĠArctic": 7252,
      "ounter": 7253,
      "Ġcategory": 7254,
      "Ġfer": 7255,
      "Ġsuffered": 7256,
      "ĠObama": 7257,
      "Ġmolecular": 7258,
      "Ġkne": 7259,
      "Ġcommittee": 7260,
      "Ġgrain": 7261,
      "Ġtight": 7262,
      "Ġfisher": 7263,
      "requ": 7264,
      "Ġblocks": 7265,
      "Ġserving": 7266,
      "venue": 7267,
      "Ġmoves": 7268,
      "etary": 7269,
      "Ġdischar": 7270,
      "ipedia": 7271,
      "Ġartist": 7272,
      "Ġpermission": 7273,
      "69": 7274,
      "Ġusual": 7275,
      "Ġtransp": 7276,
      "Ġcrew": 7277,
      "Ġengineers": 7278,
      "hea": 7279,
      "making": 7280,
      "Ġdementia": 7281,
      "Ġring": 7282,
      "Ġlungs": 7283,
      "Ġpolar": 7284,
      "Ġcareful": 7285,
      "ĠMassachusetts": 7286,
      "Ġbridge": 7287,
      "net": 7288,
      "First": 7289,
      "ĠSat": 7290,
      "bra": 7291,
      "Ġinfluenced": 7292,
      "Ġforg": 7293,
      "ĠGet": 7294,
      "Ġconcluded": 7295,
      "Ġmortality": 7296,
      "orig": 7297,
      "ĠThree": 7298,
      "Ġturning": 7299,
      "Ġkit": 7300,
      "Ġfinds": 7301,
      "Ġmatch": 7302,
      "Ġexclus": 7303,
      "About": 7304,
      "ĠSar": 7305,
      "pling": 7306,
      "ĠTim": 7307,
      "Ġabsence": 7308,
      "Ġbeings": 7309,
      "ĠHave": 7310,
      "Ġchick": 7311,
      "ĠâĢ¦": 7312,
      "Ġgases": 7313,
      "istical": 7314,
      "Ġuniversal": 7315,
      "Ġraw": 7316,
      "Ġcats": 7317,
      "eless": 7318,
      "Ġshop": 7319,
      "rem": 7320,
      "Ġvisitors": 7321,
      "Ġaudience": 7322,
      "Ġrenewable": 7323,
      "was": 7324,
      "ĠHebrew": 7325,
      "Ġwarning": 7326,
      "sm": 7327,
      "Â®": 7328,
      "itivity": 7329,
      "Ġ48": 7330,
      "Ġseeking": 7331,
      "Ġvictims": 7332,
      "Ġglucose": 7333,
      "IR": 7334,
      "Ġslave": 7335,
      "Ġmechanical": 7336,
      "yc": 7337,
      "sets": 7338,
      "ĠMississippi": 7339,
      "ĠSand": 7340,
      "Ġenorm": 7341,
      "Ġhappy": 7342,
      "Ġongoing": 7343,
      "Ġouter": 7344,
      "Ġputting": 7345,
      "Ġgained": 7346,
      "John": 7347,
      "Ġassigned": 7348,
      "Ġelsewhere": 7349,
      "pes": 7350,
      "ilation": 7351,
      "writ": 7352,
      "Ġcalories": 7353,
      "ĠIslands": 7354,
      "Ġmineral": 7355,
      "Ġpestic": 7356,
      "ĠHarvard": 7357,
      "Ġfabric": 7358,
      "Or": 7359,
      "ibraries": 7360,
      "Ġsentence": 7361,
      "Ġholid": 7362,
      "ĠCorn": 7363,
      "ontal": 7364,
      "Ġneur": 7365,
      "Ġessentially": 7366,
      "night": 7367,
      "Ġtank": 7368,
      "haust": 7369,
      "ĠAND": 7370,
      "?âĢĿ": 7371,
      "Ġrespectively": 7372,
      "Go": 7373,
      "allow": 7374,
      "Ġprogramming": 7375,
      "ugh": 7376,
      "being": 7377,
      "Ġsurfaces": 7378,
      "Ġbath": 7379,
      "Ġpreced": 7380,
      "Ġepis": 7381,
      "ouds": 7382,
      "Ġhorses": 7383,
      "Ġhabits": 7384,
      "Ġarray": 7385,
      "Ġearliest": 7386,
      "Ġinteraction": 7387,
      "Ġintest": 7388,
      "ĠVietnam": 7389,
      "ĠJo": 7390,
      "elfare": 7391,
      "ĠNote": 7392,
      "neum": 7393,
      "Ġtissues": 7394,
      "Ġbranches": 7395,
      "Ġlifestyle": 7396,
      "ĠMoon": 7397,
      "Ġurine": 7398,
      "Ġscene": 7399,
      "UT": 7400,
      "Ġ~": 7401,
      "Ġunion": 7402,
      "Ġshif": 7403,
      "oids": 7404,
      "ĠBul": 7405,
      "ĠFar": 7406,
      "Ġchlor": 7407,
      "ollowing": 7408,
      "Ġopposition": 7409,
      "Ġencouraged": 7410,
      "thodox": 7411,
      "Ġinhabit": 7412,
      "era": 7413,
      "ĠSym": 7414,
      "ĠLanguage": 7415,
      "Ġtea": 7416,
      "People": 7417,
      "Ġflav": 7418,
      "ĠHy": 7419,
      "ude": 7420,
      "ĠOlymp": 7421,
      "Ġcentre": 7422,
      "Ġplanned": 7423,
      "Ġhosp": 7424,
      "Ġsheet": 7425,
      "Ġmessages": 7426,
      "Ġrealize": 7427,
      "ĠOnline": 7428,
      "forest": 7429,
      "ĠEst": 7430,
      "Ġminute": 7431,
      "Ġ1989": 7432,
      "Ġcontinuous": 7433,
      "Ġhazard": 7434,
      "ĠEp": 7435,
      "aired": 7436,
      "Ġtaste": 7437,
      "Ġconcrete": 7438,
      "Ġimplications": 7439,
      "Ġcoffee": 7440,
      "Ġstead": 7441,
      "Ġengage": 7442,
      "Col": 7443,
      "Med": 7444,
      "ĠPage": 7445,
      "anges": 7446,
      "Ġprominent": 7447,
      "ĠLow": 7448,
      "Ġconserv": 7449,
      "Ġgranted": 7450,
      "Even": 7451,
      "ĠCub": 7452,
      "ĠZeal": 7453,
      "ĠWrit": 7454,
      "Don": 7455,
      "Ġequally": 7456,
      "Ġcaught": 7457,
      "ĠPakistan": 7458,
      "Ġbattery": 7459,
      "ĠSund": 7460,
      "azing": 7461,
      "ĠProtection": 7462,
      "ĠBig": 7463,
      "Ġbutter": 7464,
      "OM": 7465,
      "Ġgap": 7466,
      "Ġpresentation": 7467,
      "Ġadds": 7468,
      "Ġslavery": 7469,
      "Ġsharp": 7470,
      "Ġparas": 7471,
      "ĠAIDS": 7472,
      "Ġphoto": 7473,
      "ĠMinister": 7474,
      "Ġclothing": 7475,
      "Ġpanel": 7476,
      "Ġton": 7477,
      "Ġbrows": 7478,
      "hesis": 7479,
      "Ġfed": 7480,
      "2010": 7481,
      "roduction": 7482,
      "Ġcircle": 7483,
      "Ġplayers": 7484,
      "Ġterror": 7485,
      "ĠIllinois": 7486,
      "Ġstations": 7487,
      "Ġ33": 7488,
      "Ġconnections": 7489,
      "59": 7490,
      "Ġevolved": 7491,
      "Ġcalling": 7492,
      ".).": 7493,
      "ĠEPA": 7494,
      "Ġcompare": 7495,
      "Ġcommunicate": 7496,
      "Ġphenomenon": 7497,
      "rint": 7498,
      "raham": 7499,
      "acco": 7500,
      "ĠAM": 7501,
      "Ġmothers": 7502,
      "Ġment": 7503,
      "Ġrice": 7504,
      "Ġinvestigation": 7505,
      "Ġcards": 7506,
      "ĠPy": 7507,
      "ĠWal": 7508,
      "amps": 7509,
      "iat": 7510,
      "Ġevaluate": 7511,
      "ĠAlexander": 7512,
      "Ġdemocracy": 7513,
      "ĠAdd": 7514,
      "cel": 7515,
      "Ġguard": 7516,
      "ĠTop": 7517,
      "amination": 7518,
      "Ġdistricts": 7519,
      "Ġregarded": 7520,
      "Ġcorner": 7521,
      "Ġadvert": 7522,
      "Ġquarter": 7523,
      "Ġpeoples": 7524,
      "Ġtaxes": 7525,
      "Ġmixt": 7526,
      "Ġelectro": 7527,
      "ĠPhiladelphia": 7528,
      "Ġ;": 7529,
      "Ġlake": 7530,
      "rowing": 7531,
      "amber": 7532,
      "Ġpreventing": 7533,
      "Ġordinary": 7534,
      "ĠMicro": 7535,
      "Ġvan": 7536,
      "Ġdoi": 7537,
      "Ġcomplications": 7538,
      "ĠZealand": 7539,
      "Ġfet": 7540,
      "Ġcreative": 7541,
      "feed": 7542,
      "ĠDam": 7543,
      "Ġspacecraft": 7544,
      "Ġbleeding": 7545,
      "ĠChristians": 7546,
      "Ġapparently": 7547,
      "Ġalgorith": 7548,
      "Ġindigenous": 7549,
      "Ġmeasurement": 7550,
      "ĠAgriculture": 7551,
      "ĠPolicy": 7552,
      "Ġreliable": 7553,
      "arents": 7554,
      "Ġstatistics": 7555,
      "Ġfarming": 7556,
      "ĠHeritage": 7557,
      "CH": 7558,
      "ghan": 7559,
      "rite": 7560,
      "ĠJul": 7561,
      "Ġlisten": 7562,
      "Ġchromos": 7563,
      "Ġnervous": 7564,
      "ptions": 7565,
      "ĠThough": 7566,
      "ĠAS": 7567,
      "Ġguidance": 7568,
      "Art": 7569,
      "Ġrose": 7570,
      "Ġdamaged": 7571,
      "Ġassume": 7572,
      "Ġthreatened": 7573,
      "kl": 7574,
      "asses": 7575,
      "Pre": 7576,
      "Ġdesert": 7577,
      "yles": 7578,
      "ĠRh": 7579,
      "ĠBefore": 7580,
      "Ġsettled": 7581,
      "Ġacquired": 7582,
      "58": 7583,
      "Ġles": 7584,
      "ĠDictionary": 7585,
      "eren": 7586,
      "aints": 7587,
      "uma": 7588,
      "Ġdomain": 7589,
      "ĠIndust": 7590,
      "ĠCurrent": 7591,
      "Ġhormone": 7592,
      "Ġevolutionary": 7593,
      "sell": 7594,
      "Ġviewed": 7595,
      "Ġfalls": 7596,
      "Ġglac": 7597,
      "Ġmg": 7598,
      "ĠGr": 7599,
      "Ġ1930": 7600,
      "Ġowner": 7601,
      "Ġdesigns": 7602,
      "Ġbehaviour": 7603,
      "Ġsilver": 7604,
      "Ġfellow": 7605,
      "ĠConfed": 7606,
      "Ġinterpretation": 7607,
      "eness": 7608,
      "ala": 7609,
      "Ġaccuracy": 7610,
      "ackson": 7611,
      "Ġinteractions": 7612,
      "National": 7613,
      "ĠNavy": 7614,
      "ologic": 7615,
      "Ġcomplicated": 7616,
      "Ġpartner": 7617,
      "Ġbeneficial": 7618,
      "Ġvac": 7619,
      "ĠSenate": 7620,
      "ĠOpen": 7621,
      "ĠLos": 7622,
      "Ġremoval": 7623,
      "AB": 7624,
      "Ġacute": 7625,
      "Ġmathematical": 7626,
      "ĠObs": 7627,
      "Ġfunctional": 7628,
      "uther": 7629,
      "Ġfinished": 7630,
      "Ġcombat": 7631,
      "Ġexperimental": 7632,
      "Ġpresents": 7633,
      "Comm": 7634,
      "Ġthread": 7635,
      "Ġrect": 7636,
      "ĠFair": 7637,
      "Ġseconds": 7638,
      "Ġceremon": 7639,
      "Ġsuperior": 7640,
      "Ġsignificance": 7641,
      "Ġcommunications": 7642,
      "67": 7643,
      "amine": 7644,
      "gers": 7645,
      "Ð°": 7646,
      "Ġwriters": 7647,
      "Ġpsychological": 7648,
      "Ġisolated": 7649,
      "ouri": 7650,
      "Ġinformed": 7651,
      "Ġantibiotics": 7652,
      "oding": 7653,
      "zona": 7654,
      "ĠEr": 7655,
      "raq": 7656,
      "ildren": 7657,
      "Ġskill": 7658,
      "Ġversions": 7659,
      "ĠPalest": 7660,
      "una": 7661,
      "aneous": 7662,
      "Ġfilter": 7663,
      "Ġdiscrimination": 7664,
      "ĠBattle": 7665,
      "Ġvirtual": 7666,
      "ĠBooks": 7667,
      "erty": 7668,
      "Ġmeal": 7669,
      "Ġfarms": 7670,
      "Ġcollections": 7671,
      "Ġ38": 7672,
      "just": 7673,
      "ĠFed": 7674,
      "Ġimaging": 7675,
      "Ġdetected": 7676,
      "ĠSpirit": 7677,
      "ĠSometimes": 7678,
      "Ġaccompan": 7679,
      "eping": 7680,
      "Ġmissing": 7681,
      "%)": 7682,
      "ĠAcc": 7683,
      "ĠFred": 7684,
      "ĠJr": 7685,
      "press": 7686,
      "Ġcub": 7687,
      "Ġartificial": 7688,
      "oric": 7689,
      "ĠAT": 7690,
      "abb": 7691,
      "angle": 7692,
      "ourse": 7693,
      "Ġpy": 7694,
      "imm": 7695,
      "ĠNon": 7696,
      "Ġargued": 7697,
      "usalem": 7698,
      "Ġstuff": 7699,
      "Ġinterface": 7700,
      "Ġcharacterized": 7701,
      "ĠNeu": 7702,
      "Ġdates": 7703,
      "ĠVen": 7704,
      "Ġengines": 7705,
      "ĠSafety": 7706,
      "gment": 7707,
      "Ġaged": 7708,
      "Ġdesired": 7709,
      "sen": 7710,
      "abul": 7711,
      "Ġheating": 7712,
      "usiness": 7713,
      "ĠEqu": 7714,
      "opher": 7715,
      "vation": 7716,
      "enger": 7717,
      "Ġspecified": 7718,
      "century": 7719,
      "Ġathlet": 7720,
      "athered": 7721,
      "abeth": 7722,
      "Ġchap": 7723,
      "Ġusage": 7724,
      "Ġconcentrations": 7725,
      "br": 7726,
      "Ġtemple": 7727,
      "Ġpreparation": 7728,
      "Ġargue": 7729,
      "Let": 7730,
      "vin": 7731,
      "Ġremarkable": 7732,
      "Ġmyst": 7733,
      "Ġsettlement": 7734,
      "Ġengaged": 7735,
      "Ġdramatic": 7736,
      "Su": 7737,
      "ĠDC": 7738,
      "ĠJustice": 7739,
      "Ġcollaboration": 7740,
      "Ġtreating": 7741,
      "Ġchurches": 7742,
      "ogether": 7743,
      "Ġpointed": 7744,
      "Ġaddressed": 7745,
      "Ġarguments": 7746,
      "ĠHand": 7747,
      "ographical": 7748,
      "ĠOper": 7749,
      "Ġbringing": 7750,
      "Ġbreath": 7751,
      "ĠEngineering": 7752,
      "Ġexped": 7753,
      "ditionally": 7754,
      "Ġtribes": 7755,
      "Ġcopper": 7756,
      "Ġspectrum": 7757,
      "98": 7758,
      "Ġdiameter": 7759,
      "ĠResp": 7760,
      "Ġfunded": 7761,
      "Ġcriminal": 7762,
      "53": 7763,
      "Ġtooth": 7764,
      "Ġholes": 7765,
      "Ġoffering": 7766,
      "Ġourselves": 7767,
      "Ġdemands": 7768,
      "sue": 7769,
      "Ġseparated": 7770,
      "Ġearn": 7771,
      "Ġstones": 7772,
      "Ġstores": 7773,
      "Ġheavily": 7774,
      "Ġirrit": 7775,
      "ĠMcC": 7776,
      "Once": 7777,
      "63": 7778,
      "Ġvoc": 7779,
      "Ġboost": 7780,
      "eli": 7781,
      "Ġoldest": 7782,
      "ivest": 7783,
      "Ġvariation": 7784,
      "Ġlights": 7785,
      "Ġphotographs": 7786,
      "Ġseat": 7787,
      "Ġextend": 7788,
      "ĠAP": 7789,
      "quit": 7790,
      "Ġobservation": 7791,
      "Ġdefend": 7792,
      "esides": 7793,
      "Ġsevent": 7794,
      "Ġshore": 7795,
      "Ġcarb": 7796,
      "achers": 7797,
      "Ġfashion": 7798,
      "elve": 7799,
      "agan": 7800,
      "Ġbrings": 7801,
      "western": 7802,
      "icious": 7803,
      "Ġserves": 7804,
      "Ġdraft": 7805,
      "Today": 7806,
      "Ġidentification": 7807,
      "ĠIV": 7808,
      "Ġspin": 7809,
      "Ġchair": 7810,
      "Ġtumors": 7811,
      "Ġdependent": 7812,
      "Ġexpanded": 7813,
      "ĠMid": 7814,
      "Ġflower": 7815,
      "Ġimplemented": 7816,
      "Ġemphasis": 7817,
      "ĠTom": 7818,
      "Ġye": 7819,
      "this": 7820,
      "Ġwheat": 7821,
      "ĠCentre": 7822,
      "Ġjur": 7823,
      "Ġbegun": 7824,
      "ĠWilson": 7825,
      "Ġsmart": 7826,
      "Ġsatisf": 7827,
      "ricane": 7828,
      "Ġreporting": 7829,
      "bean": 7830,
      "Ġinn": 7831,
      "ĠUt": 7832,
      "ensed": 7833,
      "ĠAuthor": 7834,
      "ĠLee": 7835,
      "Ġvoltage": 7836,
      "Ġtargets": 7837,
      "ao": 7838,
      "%.": 7839,
      "ĠPot": 7840,
      "Ġthanks": 7841,
      "ami": 7842,
      "ruption": 7843,
      "Ġheads": 7844,
      "eries": 7845,
      "Ġmm": 7846,
      "ĠLew": 7847,
      "Ġstimul": 7848,
      "Ġtrends": 7849,
      "rox": 7850,
      "],": 7851,
      "Ġasking": 7852,
      "Ġfulf": 7853,
      "Ġcoverage": 7854,
      "ĠCreat": 7855,
      "plete": 7856,
      "Ġsupplements": 7857,
      "Ġowned": 7858,
      "health": 7859,
      "iments": 7860,
      "Ġplayer": 7861,
      "ĠStar": 7862,
      "Ġfavorite": 7863,
      "yal": 7864,
      "icate": 7865,
      "ustain": 7866,
      "Ġcharged": 7867,
      "you": 7868,
      "ĠHor": 7869,
      "ĠChapter": 7870,
      "ailability": 7871,
      "Ġbuff": 7872,
      "Ġped": 7873,
      "ĠKent": 7874,
      "Ġcontributed": 7875,
      "ĠNever": 7876,
      "icted": 7877,
      "Ġmoderate": 7878,
      "Ġdecreased": 7879,
      "Ġsession": 7880,
      "Ġmoisture": 7881,
      "ĠPlant": 7882,
      "Ġerrors": 7883,
      "ĠStan": 7884,
      "Ġexhaust": 7885,
      "Ġplain": 7886,
      "Ġexecutive": 7887,
      "Part": 7888,
      "Health": 7889,
      "Ġcommitment": 7890,
      "aneously": 7891,
      "Ġteens": 7892,
      "onym": 7893,
      "oca": 7894,
      "ĠYear": 7895,
      "Ġracial": 7896,
      "ĠMaryland": 7897,
      "oom": 7898,
      "Ġintern": 7899,
      "Ġresearcher": 7900,
      "Ġbless": 7901,
      "ommod": 7902,
      "Ġmaintaining": 7903,
      "ventions": 7904,
      "Ġdealing": 7905,
      "CN": 7906,
      "Ġconfidence": 7907,
      "Ġmir": 7908,
      "Ġentit": 7909,
      "ĠCard": 7910,
      "ĠFire": 7911,
      "Ġestablishment": 7912,
      "Ġbond": 7913,
      "otal": 7914,
      "Ġsettings": 7915,
      "ĠJerusalem": 7916,
      "ĠMuslims": 7917,
      "Ġworship": 7918,
      "ivestock": 7919,
      "Ġforming": 7920,
      "Ġupdated": 7921,
      "soft": 7922,
      "Ġscores": 7923,
      "Ġdefinite": 7924,
      "Ġdrain": 7925,
      "Ġrespiratory": 7926,
      "Ġminerals": 7927,
      "Ġproceed": 7928,
      "ĠDespite": 7929,
      "Ġflows": 7930,
      "Ġdifficulties": 7931,
      "Ġpush": 7932,
      "Ġburied": 7933,
      "Ġoccurring": 7934,
      "Ġjudge": 7935,
      "after": 7936,
      "2011": 7937,
      "emb": 7938,
      "Ġoutcome": 7939,
      "Ġlaser": 7940,
      "Ġbears": 7941,
      "Ġvel": 7942,
      "Ġcharacteristic": 7943,
      "Ġvisited": 7944,
      "ĠEdward": 7945,
      "icy": 7946,
      "Ġorders": 7947,
      "Ġaccessible": 7948,
      "ĠBah": 7949,
      "Ġnewspaper": 7950,
      "Ġworst": 7951,
      "pled": 7952,
      "Ġremind": 7953,
      "MP": 7954,
      "iop": 7955,
      "iological": 7956,
      "ĠAvoid": 7957,
      "ceans": 7958,
      "Ġvariables": 7959,
      "Ġnom": 7960,
      "Ġinfect": 7961,
      "Ġliterary": 7962,
      "Sc": 7963,
      "Ġrely": 7964,
      "atively": 7965,
      "Ġsched": 7966,
      "Ġcotton": 7967,
      "iti": 7968,
      "Ġflash": 7969,
      "Ġforget": 7970,
      "ador": 7971,
      "Ġpersonnel": 7972,
      "Ġmeasuring": 7973,
      "ician": 7974,
      "Ġ34": 7975,
      "books": 7976,
      "borne": 7977,
      "Ġrational": 7978,
      "ĠLiter": 7979,
      "neys": 7980,
      "izabeth": 7981,
      "Ġdisabilities": 7982,
      "Ġextension": 7983,
      "ĠCy": 7984,
      "Ġbelieves": 7985,
      "Ġcovering": 7986,
      "ĠChristianity": 7987,
      "Ġprosp": 7988,
      "chen": 7989,
      "Ġassumed": 7990,
      "Ġagent": 7991,
      "iability": 7992,
      "zone": 7993,
      "Ġcontents": 7994,
      "ĠKar": 7995,
      "Ġdescript": 7996,
      "Ġft": 7997,
      "urning": 7998,
      "ĠDrug": 7999,
      "dule": 8000,
      "va": 8001,
      "Ġwindows": 8002,
      "icular": 8003,
      "foot": 8004,
      "Ġ55": 8005,
      "uten": 8006,
      "Ġboat": 8007,
      "ĠGall": 8008,
      "Ġreviewed": 8009,
      "ĠArizona": 8010,
      "law": 8011,
      "Ġreaching": 8012,
      "Ġsurge": 8013,
      "airy": 8014,
      "Ġsteam": 8015,
      "Ġfocuses": 8016,
      "hent": 8017,
      "ĠSaint": 8018,
      "Ġindustries": 8019,
      "regon": 8020,
      "ĠCross": 8021,
      "Ġorb": 8022,
      "Ġitem": 8023,
      "about": 8024,
      "Ġlowest": 8025,
      "Ġmanifest": 8026,
      "Ġduty": 8027,
      "vol": 8028,
      "Ġalive": 8029,
      "Ġfacing": 8030,
      "ĠCreek": 8031,
      "ĠPolit": 8032,
      "Ġatoms": 8033,
      "ĠMaterial": 8034,
      "ĠOl": 8035,
      "Ġformula": 8036,
      "Ġcooling": 8037,
      "Ġtemporary": 8038,
      "Ġchannel": 8039,
      "Ġirrig": 8040,
      "eting": 8041,
      "Ġstopped": 8042,
      "rical": 8043,
      "Ġaster": 8044,
      "Ġstronger": 8045,
      "Ġcopies": 8046,
      "ĠAL": 8047,
      "Ġadvis": 8048,
      "ĠFinally": 8049,
      "ulpt": 8050,
      "also": 8051,
      "Ġplot": 8052,
      "riday": 8053,
      "ĠRoad": 8054,
      "ĠPen": 8055,
      "Lear": 8056,
      "ĠIraq": 8057,
      "ĠCDC": 8058,
      "Ġasc": 8059,
      "endar": 8060,
      "Ġofficer": 8061,
      "itual": 8062,
      "Ġalph": 8063,
      "Ġrelax": 8064,
      "Ġreveal": 8065,
      "ĠHistorical": 8066,
      "archy": 8067,
      "2007": 8068,
      "ĠJackson": 8069,
      "Ġpup": 8070,
      "Ġpropag": 8071,
      "Ġspons": 8072,
      "mann": 8073,
      "2008": 8074,
      "apor": 8075,
      "ĠSection": 8076,
      "Ġvarieties": 8077,
      "Ġpilot": 8078,
      ")||": 8079,
      "Ġenormous": 8080,
      "hyd": 8081,
      "adow": 8082,
      "Per": 8083,
      "Ġchemistry": 8084,
      "Ġmammals": 8085,
      "ols": 8086,
      "Ġ1920": 8087,
      "Ġevident": 8088,
      "idity": 8089,
      "ĠLo": 8090,
      "ieve": 8091,
      "Ġproven": 8092,
      "Ġinterior": 8093,
      "print": 8094,
      "Every": 8095,
      "uscript": 8096,
      "Ġsocieties": 8097,
      "She": 8098,
      "Ġsulf": 8099,
      "Ġgram": 8100,
      "Ġclient": 8101,
      "Ġpreserve": 8102,
      "Ġoccupied": 8103,
      "Ref": 8104,
      "Ġstreams": 8105,
      "Ġflying": 8106,
      "rh": 8107,
      "Ġcas": 8108,
      "ĠMax": 8109,
      "ĠHawai": 8110,
      "Ġpit": 8111,
      "Ġviolent": 8112,
      "rection": 8113,
      "Ġbatt": 8114,
      "Ġfinger": 8115,
      "Ġadolesc": 8116,
      "Ġgraduate": 8117,
      "Ġvirtually": 8118,
      "oga": 8119,
      "Â©": 8120,
      "Ġcontribution": 8121,
      "2009": 8122,
      "Ġsmooth": 8123,
      "Ġstatements": 8124,
      "Ġinfluenza": 8125,
      "Ġtransmitted": 8126,
      "EF": 8127,
      "Ġfought": 8128,
      "ĠField": 8129,
      "Ġrepresentation": 8130,
      "Ġgravity": 8131,
      "las": 8132,
      "Ġunw": 8133,
      "Ġbiom": 8134,
      "Ġeru": 8135,
      "Ġ1940": 8136,
      "ĠMissouri": 8137,
      "Ġconstantly": 8138,
      "Ġeliminate": 8139,
      "Ġcort": 8140,
      "ĠAsk": 8141,
      "Ġstrengthen": 8142,
      "ati": 8143,
      "ocial": 8144,
      "Ġinitiative": 8145,
      "Ġecosystems": 8146,
      "Ġtraditions": 8147,
      "ĠJefferson": 8148,
      "real": 8149,
      "61": 8150,
      "bell": 8151,
      "Ġquiet": 8152,
      "Ġassociate": 8153,
      "ĠSystems": 8154,
      "stant": 8155,
      "Ġworry": 8156,
      "Ġcourts": 8157,
      "Ġanalog": 8158,
      "Ġfaculty": 8159,
      "Ġmigration": 8160,
      "coming": 8161,
      "ĠMult": 8162,
      "Ġsciences": 8163,
      "Ġconsideration": 8164,
      "ugg": 8165,
      "hedule": 8166,
      "Ġpros": 8167,
      "Ġreferences": 8168,
      "umer": 8169,
      ",'": 8170,
      "Ġrecre": 8171,
      "Ġdriven": 8172,
      "Ġcontinuing": 8173,
      "Ġexcessive": 8174,
      "thritis": 8175,
      "ĠEU": 8176,
      "aret": 8177,
      "Ġadverse": 8178,
      "Ġunp": 8179,
      "ricted": 8180,
      "ifferent": 8181,
      "Ġrepair": 8182,
      "Ġexisted": 8183,
      "ĠAssess": 8184,
      "Ġteams": 8185,
      "Ġgirl": 8186,
      "CP": 8187,
      "Ġfuels": 8188,
      "ĠBack": 8189,
      "Ġobserve": 8190,
      "Ġvariations": 8191,
      "ĠAllah": 8192,
      "Ġcooking": 8193,
      "Ġbiodiversity": 8194,
      "astro": 8195,
      "Ġillegal": 8196,
      "ba": 8197,
      "itarian": 8198,
      "Ġproviders": 8199,
      "Ġradical": 8200,
      "Ġvictory": 8201,
      "asant": 8202,
      "ĠCapt": 8203,
      "Ġexhibit": 8204,
      "Rep": 8205,
      "Ġsales": 8206,
      "onsin": 8207,
      "lected": 8208,
      "Ġflour": 8209,
      "rav": 8210,
      "Ġven": 8211,
      "endment": 8212,
      "ycling": 8213,
      "BM": 8214,
      "ĠFact": 8215,
      "Ġwheel": 8216,
      "Ġheaven": 8217,
      "Ġdetection": 8218,
      "CA": 8219,
      "Ġconsidering": 8220,
      "Ġthreats": 8221,
      "Ð¾": 8222,
      "ĠCat": 8223,
      "Ġaccommod": 8224,
      "Ġfaced": 8225,
      "Ġ1988": 8226,
      "Ġhunting": 8227,
      "atus": 8228,
      "Ġspaces": 8229,
      "Ġprey": 8230,
      "isconsin": 8231,
      "Ġcouncil": 8232,
      "Ġimagine": 8233,
      "Ġplenty": 8234,
      "Ġdisability": 8235,
      "Ġexercises": 8236,
      "nesota": 8237,
      "Ġmine": 8238,
      "ĠMethod": 8239,
      "Ġabstract": 8240,
      "Ġprovince": 8241,
      "Ġtranslation": 8242,
      "Ġconj": 8243,
      "Ġ1986": 8244,
      ".:": 8245,
      "Ġhypothesis": 8246,
      "ĠPoint": 8247,
      "ĠPhilipp": 8248,
      "ĠCop": 8249,
      "Ġdefault": 8250,
      "Ġreduces": 8251,
      "ĠEconomic": 8252,
      "ieval": 8253,
      "ĠAlaska": 8254,
      "2006": 8255,
      "section": 8256,
      "Ġincidence": 8257,
      "Ġthereby": 8258,
      "ĠSing": 8259,
      "Ġmicrob": 8260,
      "Ġhardware": 8261,
      "Ġdys": 8262,
      "imp": 8263,
      "Ġherb": 8264,
      "ĠSeveral": 8265,
      "Ġuniform": 8266,
      "Ġmaybe": 8267,
      "DS": 8268,
      "Ġthr": 8269,
      "urd": 8270,
      "Ġrecover": 8271,
      "onday": 8272,
      "ĠAlbert": 8273,
      "62": 8274,
      "Click": 8275,
      "ĠDie": 8276,
      "Ġtheme": 8277,
      "ĠDoes": 8278,
      "through": 8279,
      "Ġachievement": 8280,
      "fts": 8281,
      "ĠFind": 8282,
      "Ġintensity": 8283,
      "Ġincident": 8284,
      "power": 8285,
      "Ġdies": 8286,
      "Ġresid": 8287,
      "ovascular": 8288,
      "ĠReference": 8289,
      "Hist": 8290,
      "Ġdecor": 8291,
      "sts": 8292,
      "ĠRam": 8293,
      "Ġscore": 8294,
      "Ġassert": 8295,
      "pass": 8296,
      "Ġtick": 8297,
      "ocument": 8298,
      "ĠMoreover": 8299,
      "ĠAngeles": 8300,
      "Ġkilling": 8301,
      "ĠPass": 8302,
      "ĠLead": 8303,
      "Ġclar": 8304,
      "uting": 8305,
      "ĠVan": 8306,
      "Ġtransplant": 8307,
      "ĠFurthermore": 8308,
      "Ġgrid": 8309,
      "Ġhence": 8310,
      "ĠDO": 8311,
      "ĠSign": 8312,
      "ĠCP": 8313,
      "rooms": 8314,
      "ĠHT": 8315,
      "essions": 8316,
      "ĠWord": 8317,
      "ĠAbraham": 8318,
      "UL": 8319,
      "riend": 8320,
      "ĠStation": 8321,
      "Ġinitially": 8322,
      "Ġdiarr": 8323,
      "App": 8324,
      "ĠNob": 8325,
      "Ġanywhere": 8326,
      "unicipal": 8327,
      "box": 8328,
      "Ġ39": 8329,
      "ĠSimilar": 8330,
      "52": 8331,
      "Ġvs": 8332,
      "Ġpin": 8333,
      "ĠDutch": 8334,
      "Ġfalling": 8335,
      "Two": 8336,
      "eh": 8337,
      "Ġecological": 8338,
      "Ġessay": 8339,
      "enter": 8340,
      "Ġobjectives": 8341,
      "Ġdivine": 8342,
      "Ġeveryday": 8343,
      "ĠScotland": 8344,
      "Scient": 8345,
      "Ġmusical": 8346,
      "ĠCheck": 8347,
      "Copyright": 8348,
      "Ġinqu": 8349,
      "Ġmagazine": 8350,
      "Ġheritage": 8351,
      "ĠQuest": 8352,
      "iations": 8353,
      "arks": 8354,
      "ested": 8355,
      "irms": 8356,
      "rive": 8357,
      "Ġ1987": 8358,
      "----": 8359,
      "kind": 8360,
      "ĠAfghan": 8361,
      "Ġcompens": 8362,
      "Ġinspired": 8363,
      "Ġroles": 8364,
      "Ġanalys": 8365,
      "Ġaimed": 8366,
      "Ġmanufacturers": 8367,
      "Ġdistant": 8368,
      "Ġoccas": 8369,
      "Ġcorrel": 8370,
      "Ġvaccines": 8371,
      "Ġwisdom": 8372,
      "ĠTake": 8373,
      "Ġreasonable": 8374,
      "ĠDaniel": 8375,
      "Ġempty": 8376,
      "yer": 8377,
      "Ġbrand": 8378,
      "Ġsus": 8379,
      "ĠKorea": 8380,
      "OP": 8381,
      "Ġnice": 8382,
      "Ġbeat": 8383,
      "Ġknowing": 8384,
      "Ġarmed": 8385,
      "Ġfeedback": 8386,
      "ĠForm": 8387,
      "ĠSpecies": 8388,
      "Ġ)": 8389,
      "antic": 8390,
      "ĠAgain": 8391,
      "Ġstrike": 8392,
      "Ġ37": 8393,
      "Ġwaiting": 8394,
      "ĠOrig": 8395,
      "utation": 8396,
      "ailing": 8397,
      "Ġoverw": 8398,
      "2005": 8399,
      "ĠModern": 8400,
      "Ġpriority": 8401,
      "Ġliteracy": 8402,
      "Ġbeauty": 8403,
      "Ġdropped": 8404,
      "oul": 8405,
      "ĠHim": 8406,
      "HS": 8407,
      "Ġconclus": 8408,
      "Ġstructural": 8409,
      "Ġsect": 8410,
      "Ġuniversities": 8411,
      "ĠColl": 8412,
      "Ġhouseholds": 8413,
      "outheast": 8414,
      "Ġclouds": 8415,
      "Ġtempor": 8416,
      "ĠWay": 8417,
      "isting": 8418,
      "Ġimprovements": 8419,
      "Post": 8420,
      "orters": 8421,
      "Ġsacred": 8422,
      ".),": 8423,
      "ĠTri": 8424,
      "aming": 8425,
      "ĠWorks": 8426,
      "Ġcooperation": 8427,
      "Ġneutral": 8428,
      "Ġcreatures": 8429,
      "ĠImm": 8430,
      "IF": 8431,
      "inent": 8432,
      "ĠStandard": 8433,
      "ĠOregon": 8434,
      "Ġunem": 8435,
      "Ġnitrogen": 8436,
      "Ġphrase": 8437,
      "Ġsport": 8438,
      "ĠMarine": 8439,
      "Ġprinting": 8440,
      "Ġhabitats": 8441,
      "Ġrefused": 8442,
      "Ġdirections": 8443,
      "Ġ?": 8444,
      "anol": 8445,
      "vernment": 8446,
      "Ġsimult": 8447,
      "Ġprotective": 8448,
      "Ġcustomers": 8449,
      "ecess": 8450,
      "play": 8451,
      "Ġbehavioral": 8452,
      "Ġweakness": 8453,
      "Ġash": 8454,
      "Ġguess": 8455,
      "Ġcensus": 8456,
      "otype": 8457,
      "ĠHom": 8458,
      "Ġintent": 8459,
      "Ġbene": 8460,
      "Ġoste": 8461,
      "ĠAR": 8462,
      "Ġclassical": 8463,
      "ĠAndrew": 8464,
      "ĠPeace": 8465,
      ".âĢĻ": 8466,
      "Ġthroat": 8467,
      "Ġstood": 8468,
      "ga": 8469,
      "Ġvegetation": 8470,
      "Ġpneum": 8471,
      "Ġtrigger": 8472,
      "Ã¤": 8473,
      "Ġlogic": 8474,
      "ĠElizabeth": 8475,
      "ĠSunday": 8476,
      "Source": 8477,
      "Ġcord": 8478,
      "Ġfix": 8479,
      "ĠFigure": 8480,
      "Ġcorresponding": 8481,
      "mm": 8482,
      "âĢĺ": 8483,
      "Ġattribut": 8484,
      "Ġwars": 8485,
      "ĠâĢ¢": 8486,
      "Ġcandidate": 8487,
      "Ġgent": 8488,
      "ĠLight": 8489,
      "arly": 8490,
      "Ġcontributions": 8491,
      "Ġadapted": 8492,
      "Ġmagnitude": 8493,
      "igue": 8494,
      "ĠPur": 8495,
      "asts": 8496,
      "iture": 8497,
      "oded": 8498,
      "Ġadvent": 8499,
      "Ġquantum": 8500,
      "made": 8501,
      "ologically": 8502,
      "ĠType": 8503,
      "Ġdiag": 8504,
      "Ġsaved": 8505,
      "Ġsodium": 8506,
      "CR": 8507,
      "ĠTestament": 8508,
      "Ġweigh": 8509,
      "Ġbroadcast": 8510,
      "Ġcough": 8511,
      "olving": 8512,
      "ĠHo": 8513,
      "ials": 8514,
      "ĠChief": 8515,
      "Ġearthquake": 8516,
      "Ġsuscept": 8517,
      "Ġreward": 8518,
      "Ġgeomet": 8519,
      "teb": 8520,
      "gence": 8521,
      "Ġaccord": 8522,
      "Ġhat": 8523,
      "Ġdevast": 8524,
      "Ġidentifying": 8525,
      "Ġendangered": 8526,
      "uled": 8527,
      "ĠUr": 8528,
      "Ġtut": 8529,
      "ĠVolume": 8530,
      "ĠLittle": 8531,
      "ptic": 8532,
      "ĠSpring": 8533,
      "Ġprotecting": 8534,
      "ĠBa": 8535,
      "agraph": 8536,
      "Ġembry": 8537,
      "Ġhorizontal": 8538,
      "2000": 8539,
      "Ġsubt": 8540,
      "Ġexploration": 8541,
      "Ġlens": 8542,
      "Ġwat": 8543,
      "Ġdance": 8544,
      "Ġdress": 8545,
      "ĠBush": 8546,
      "Ġminority": 8547,
      "Ġgrains": 8548,
      "Ġaffecting": 8549,
      "Ġmixture": 8550,
      "Ġinteractive": 8551,
      "Ġconverted": 8552,
      "Ġcoc": 8553,
      "Ġacknowled": 8554,
      "ĠNeg": 8555,
      "Ġwinds": 8556,
      "Ġbigger": 8557,
      "Ġnotion": 8558,
      "Ġscr": 8559,
      "CI": 8560,
      "claim": 8561,
      "ĠHealthwise": 8562,
      "ĠMinnesota": 8563,
      "Ġingredients": 8564,
      "Ġinternet": 8565,
      "eut": 8566,
      "Ġraising": 8567,
      "alo": 8568,
      "ĠCode": 8569,
      "Ġcoral": 8570,
      "acent": 8571,
      "Ġpromise": 8572,
      "Ġrepresentative": 8573,
      "Ġaudio": 8574,
      "ĠFish": 8575,
      "Ġdesignated": 8576,
      "atial": 8577,
      "anger": 8578,
      "Ġgrounds": 8579,
      "amins": 8580,
      "Ġdisk": 8581,
      "Ġquantity": 8582,
      "Ġsubsid": 8583,
      "Ġdeeper": 8584,
      "ĠFarm": 8585,
      "Ġparticle": 8586,
      "Ġassemb": 8587,
      "ĠClinical": 8588,
      "Ġhappening": 8589,
      "ĠMess": 8590,
      "Ġhealthcare": 8591,
      "Ġcheap": 8592,
      "Ġloved": 8593,
      "Ġhospitals": 8594,
      "Ġtables": 8595,
      "ĠTenn": 8596,
      "Ġsculpt": 8597,
      "56": 8598,
      "Ġpursu": 8599,
      "ĠQueen": 8600,
      "ket": 8601,
      "esh": 8602,
      "ĠGar": 8603,
      "Ġaddresses": 8604,
      "ĠJacob": 8605,
      "ĠDown": 8606,
      "Ġcolony": 8607,
      "Back": 8608,
      "ema": 8609,
      "hus": 8610,
      "owa": 8611,
      "irus": 8612,
      "Ġregardless": 8613,
      "Ġannually": 8614,
      "Pub": 8615,
      "ĠAst": 8616,
      "Ġdism": 8617,
      "agnetic": 8618,
      "ĠWisconsin": 8619,
      "Ġdiffer": 8620,
      "800": 8621,
      "Cons": 8622,
      "ifer": 8623,
      "Ġperception": 8624,
      "Ġdescend": 8625,
      "olves": 8626,
      "ĠTreatment": 8627,
      "ĠEmer": 8628,
      "Ġtob": 8629,
      "ĠStandards": 8630,
      "apped": 8631,
      "Ġdegrad": 8632,
      "Ġsplit": 8633,
      "!\"": 8634,
      "ĠBern": 8635,
      "Ġritual": 8636,
      "sor": 8637,
      "Ġmarks": 8638,
      "Ġprecip": 8639,
      "oons": 8640,
      "Researchers": 8641,
      "Ġtor": 8642,
      "Ġsunlight": 8643,
      "Ġovercome": 8644,
      "ĠIndeed": 8645,
      "ĠBiology": 8646,
      "ruit": 8647,
      "ĠIndepend": 8648,
      "aning": 8649,
      "Ġlivestock": 8650,
      "chnology": 8651,
      "Ġdoses": 8652,
      "mond": 8653,
      "Ã¢": 8654,
      "onents": 8655,
      "Ġevening": 8656,
      "da": 8657,
      "fe": 8658,
      "sub": 8659,
      "Ġavailability": 8660,
      "Ġsons": 8661,
      "lete": 8662,
      "ĠHead": 8663,
      "Ġreturns": 8664,
      "Ġwise": 8665,
      "Ġhumanity": 8666,
      "Ġdynamic": 8667,
      "Ġbeneath": 8668,
      "Ġseiz": 8669,
      "Ġpreserved": 8670,
      "57": 8671,
      "Ġbare": 8672,
      "ĠSqu": 8673,
      "Ġspoke": 8674,
      "ranean": 8675,
      "isd": 8676,
      "Ġextraord": 8677,
      "abulary": 8678,
      "ĠTable": 8679,
      "ĠMoses": 8680,
      "Ġexplicit": 8681,
      "Ġautomatically": 8682,
      "itory": 8683,
      "Ġclassified": 8684,
      "Ġoccasionally": 8685,
      "Under": 8686,
      "ĠNO": 8687,
      "ĠMedia": 8688,
      "Ġdiscussions": 8689,
      "Ġvertical": 8690,
      "onal": 8691,
      "Ġgathered": 8692,
      "ĠMah": 8693,
      "Ġprogramme": 8694,
      "shaped": 8695,
      "96": 8696,
      "ĠBlood": 8697,
      "Ð¸": 8698,
      "igious": 8699,
      "ĠWithout": 8700,
      "51": 8701,
      "Ġfing": 8702,
      "awn": 8703,
      "2003": 8704,
      "Ġspoken": 8705,
      "Ġgrows": 8706,
      "bec": 8707,
      "Ġimmigrants": 8708,
      "erts": 8709,
      "Ġrealized": 8710,
      "Sub": 8711,
      "Ġstrain": 8712,
      "regular": 8713,
      "Ġaccompanied": 8714,
      "obile": 8715,
      "Ġdisrupt": 8716,
      "ĠAssembly": 8717,
      "Ġdetermining": 8718,
      "Ġfatal": 8719,
      "ĠKeep": 8720,
      "lav": 8721,
      "Ġtong": 8722,
      "Ġaims": 8723,
      "Ġconversion": 8724,
      "Ġentitled": 8725,
      "Ġreplic": 8726,
      "ĠSolar": 8727,
      "zo": 8728,
      "Ġcompound": 8729,
      "ĠFDA": 8730,
      "iph": 8731,
      "Ġbutton": 8732,
      "Ġdense": 8733,
      "Ġanticip": 8734,
      "Ġburned": 8735,
      "Ġsitting": 8736,
      "ĠTurk": 8737,
      "Ġauto": 8738,
      "Ġcaps": 8739,
      "2002": 8740,
      "Sm": 8741,
      "Ġpione": 8742,
      "Ġgenome": 8743,
      "Ġsurg": 8744,
      "Ġentering": 8745,
      "ĠArts": 8746,
      "Ġstrange": 8747,
      "iger": 8748,
      "Ġpreferred": 8749,
      "ĠSon": 8750,
      "Ġtobacco": 8751,
      "EA": 8752,
      "ĠAction": 8753,
      "Ġemerging": 8754,
      "Ġsoph": 8755,
      "Ġhidden": 8756,
      "Ġcomprom": 8757,
      "ĠUnfortunately": 8758,
      "Ġsale": 8759,
      "Ġfra": 8760,
      "Ġresc": 8761,
      "Ġregulation": 8762,
      "cription": 8763,
      "ropol": 8764,
      "Ġminister": 8765,
      "ĠMA": 8766,
      "ysical": 8767,
      "Ġpurchased": 8768,
      "Ġprayer": 8769,
      "Ġsup": 8770,
      "Ġphosph": 8771,
      "Ġsuddenly": 8772,
      "mble": 8773,
      "ali": 8774,
      "ĠPu": 8775,
      "Ġrh": 8776,
      "door": 8777,
      "Ġsoy": 8778,
      "Ġallergic": 8779,
      "TS": 8780,
      "Ġfires": 8781,
      "ĠLast": 8782,
      "Ġclub": 8783,
      "Ġproposal": 8784,
      "ĠOrthodox": 8785,
      "ĠImp": 8786,
      "bel": 8787,
      "Ġultimate": 8788,
      "Ġwelfare": 8789,
      "Ġfest": 8790,
      "ĠTry": 8791,
      "Ġreadily": 8792,
      "ĠAntar": 8793,
      "Ġcomfortable": 8794,
      "54": 8795,
      "page": 8796,
      "Ġreverse": 8797,
      "ĠLess": 8798,
      "ĠOffic": 8799,
      "Ġsensitivity": 8800,
      "Ġfifth": 8801,
      "Ġmosquit": 8802,
      "92": 8803,
      "Ġatmospheric": 8804,
      "ĠLewis": 8805,
      "ĠLater": 8806,
      "Ġclock": 8807,
      "Ġranging": 8808,
      "rency": 8809,
      "Ġorigins": 8810,
      "Ġinhabitants": 8811,
      "Ġoceans": 8812,
      "Ġcure": 8813,
      "Ġroyal": 8814,
      "Ġinvolvement": 8815,
      "ifice": 8816,
      "ogs": 8817,
      "Ġdietary": 8818,
      "date": 8819,
      "action": 8820,
      "Ġmeteor": 8821,
      "itzer": 8822,
      "ĠCA": 8823,
      "Ġshoot": 8824,
      "run": 8825,
      "agle": 8826,
      "ĠArchives": 8827,
      "ptom": 8828,
      "Ġidentical": 8829,
      "ĠMinistry": 8830,
      "Ġcolonies": 8831,
      "MA": 8832,
      "sis": 8833,
      "erally": 8834,
      "erness": 8835,
      "Ġcab": 8836,
      "Ġgrades": 8837,
      "Ġmovie": 8838,
      "ĠADHD": 8839,
      "ĠClick": 8840,
      "Ġaffairs": 8841,
      "Ġillnesses": 8842,
      ".]": 8843,
      "eller": 8844,
      "oked": 8845,
      "Inf": 8846,
      "who": 8847,
      "ĠEll": 8848,
      "Ġmarg": 8849,
      "Ġcul": 8850,
      "itamin": 8851,
      "Ġbibl": 8852,
      "ĠWed": 8853,
      "Ġlighting": 8854,
      "Ġdriver": 8855,
      "Ġkingdom": 8856,
      "ais": 8857,
      "ĠMexican": 8858,
      "Ġtip": 8859,
      "Ġhall": 8860,
      "Ġspr": 8861,
      "Ġcorrectly": 8862,
      "Sec": 8863,
      "Ġinvasion": 8864,
      "Ġthermal": 8865,
      "Ġregistered": 8866,
      "Ġdisplayed": 8867,
      "âĢĻ.": 8868,
      "Ġreserv": 8869,
      "aware": 8870,
      "2004": 8871,
      "Ġrepresenting": 8872,
      "ĠPortug": 8873,
      "uber": 8874,
      "Ġoptical": 8875,
      "Ġattempted": 8876,
      "Ġintegration": 8877,
      "Ġvolunteers": 8878,
      "Ġshed": 8879,
      "Ġspray": 8880,
      "ĠLouisiana": 8881,
      "Ġmetabol": 8882,
      "Ġconsciousness": 8883,
      "Ġreign": 8884,
      "ĠIce": 8885,
      "olds": 8886,
      "ĠPhot": 8887,
      "Ġbag": 8888,
      "Ġpsychology": 8889,
      "ĠGreece": 8890,
      "Ġabandoned": 8891,
      "Ġfur": 8892,
      "Ġbreed": 8893,
      "uits": 8894,
      "ĠEss": 8895,
      "ĠArea": 8896,
      "Ġfatty": 8897,
      "ĠCentury": 8898,
      "Ġlosses": 8899,
      "operative": 8900,
      "Ġ978": 8901,
      "Ġadvantages": 8902,
      "Ġsavings": 8903,
      "Ġpill": 8904,
      "ila": 8905,
      "ĠFace": 8906,
      "profit": 8907,
      "2001": 8908,
      "ĠLook": 8909,
      "Ġmanager": 8910,
      "Ġoverl": 8911,
      "reated": 8912,
      "Ġpromoting": 8913,
      "ĠBlue": 8914,
      "Ġaggressive": 8915,
      "oline": 8916,
      "ĠBang": 8917,
      "they": 8918,
      "ĠCorps": 8919,
      "Where": 8920,
      "Ġampl": 8921,
      "Get": 8922,
      "Ġincent": 8923,
      "Ġmeals": 8924,
      "Ġinnovative": 8925,
      "Ġstreets": 8926,
      "GO": 8927,
      "amples": 8928,
      "Ġdict": 8929,
      "ctors": 8930,
      "Ġvaries": 8931,
      "Ġlifetime": 8932,
      "iously": 8933,
      "uesday": 8934,
      "Eng": 8935,
      "Ġshapes": 8936,
      "ĠView": 8937,
      "Ġmouse": 8938,
      "Ġconvert": 8939,
      "ĠMarsh": 8940,
      "Ġpel": 8941,
      "Ġscope": 8942,
      "ymes": 8943,
      "Ġembra": 8944,
      "Ġthirty": 8945,
      "Ġlip": 8946,
      "Ġ1985": 8947,
      "Ġsummary": 8948,
      "ersonal": 8949,
      "ĠJersey": 8950,
      "Ge": 8951,
      "oys": 8952,
      "Ġuncle": 8953,
      "Ġseriously": 8954,
      "ĠCost": 8955,
      "ĠGre": 8956,
      "ĠPhD": 8957,
      "nedy": 8958,
      "Ġtox": 8959,
      "atories": 8960,
      "Ġconsumed": 8961,
      "Ġtill": 8962,
      "Ġwing": 8963,
      "ocated": 8964,
      "Ġveloc": 8965,
      "Mar": 8966,
      "asy": 8967,
      "thew": 8968,
      "Ġprivile": 8969,
      "Ġconversation": 8970,
      "Ġprescribed": 8971,
      "Ġlosing": 8972,
      "Ġ42": 8973,
      "green": 8974,
      "Ġtorn": 8975,
      "ĠOS": 8976,
      "mers": 8977,
      "ĠCenters": 8978,
      "Ġpermitted": 8979,
      "Ġancestors": 8980,
      "Ġpoetry": 8981,
      "itic": 8982,
      "ĠCensus": 8983,
      "ĠLuther": 8984,
      "ieth": 8985,
      "cking": 8986,
      "Ġbarrier": 8987,
      "Ġcalculated": 8988,
      "86": 8989,
      "ubble": 8990,
      "Ġsister": 8991,
      "ĠÂ·": 8992,
      "Ġreflected": 8993,
      "Ġpredicted": 8994,
      "Ġreproductive": 8995,
      "Ġmile": 8996,
      "Ġmature": 8997,
      "ĠMur": 8998,
      "rene": 8999,
      "Ġposted": 9000,
      "Ġacting": 9001,
      "Ġattitude": 9002,
      "Ġgray": 9003,
      "ometer": 9004,
      "ĠOtt": 9005,
      "Ġdipl": 9006,
      "ega": 9007,
      "Ġhopes": 9008,
      "rait": 9009,
      "Ġspan": 9010,
      "Ġcompos": 9011,
      "Ġcamps": 9012,
      "300": 9013,
      "ĠSav": 9014,
      "aren": 9015,
      "Ġforecast": 9016,
      "Ġunlikely": 9017,
      "Ġes": 9018,
      "Ġlakes": 9019,
      "Ġstake": 9020,
      "aternal": 9021,
      "hemistry": 9022,
      "Each": 9023,
      "Ġloose": 9024,
      "Ġutility": 9025,
      "Ġlinear": 9026,
      "Car": 9027,
      "vals": 9028,
      "Ġdistinction": 9029,
      "Ġtelling": 9030,
      "Ġsurprised": 9031,
      "Ġtechnological": 9032,
      "Ġvillages": 9033,
      "Ġoverwhel": 9034,
      "Ġemerged": 9035,
      "Ġexceed": 9036,
      "Ġtrem": 9037,
      "ĠPerhaps": 9038,
      "ĠWilliams": 9039,
      "sk": 9040,
      "Ġschedule": 9041,
      "ĠDev": 9042,
      "PL": 9043,
      "pos": 9044,
      "Ġmood": 9045,
      "ĠTown": 9046,
      "ĠFriday": 9047,
      "unar": 9048,
      "ells": 9049,
      "Ġmanuscript": 9050,
      "ceeding": 9051,
      "ĠNY": 9052,
      "Ġplanting": 9053,
      "ĠÂ£": 9054,
      "di": 9055,
      "wan": 9056,
      "Ġparad": 9057,
      "Ġelderly": 9058,
      "ĠHam": 9059,
      "Ġtrace": 9060,
      "ĠDemocratic": 9061,
      "gon": 9062,
      "Ġholy": 9063,
      "Ġreplacement": 9064,
      "Ġho": 9065,
      "Ġbacterial": 9066,
      "Rel": 9067,
      "Ġeducators": 9068,
      "Ġruled": 9069,
      "mia": 9070,
      "enh": 9071,
      "ĠBu": 9072,
      "berry": 9073,
      "angel": 9074,
      "Ġfaces": 9075,
      "ĠLinux": 9076,
      "Ġtact": 9077,
      "Ġrequiring": 9078,
      "Ġrepresentatives": 9079,
      "ĠContin": 9080,
      "Ġdinosa": 9081,
      "rec": 9082,
      "Ġpace": 9083,
      "issance": 9084,
      "Ã±": 9085,
      "pert": 9086,
      "ĠHispan": 9087,
      "ĠSanta": 9088,
      "lights": 9089,
      "Ġswelling": 9090,
      "Ġdeposits": 9091,
      "fast": 9092,
      "ĠJon": 9093,
      "Before": 9094,
      "Ġprevalence": 9095,
      "har": 9096,
      "Ġpairs": 9097,
      "Ġprocessed": 9098,
      "ĠModel": 9099,
      "Ġwonderful": 9100,
      "Ã¨": 9101,
      "ĠIsa": 9102,
      "ĠOcc": 9103,
      "ĠCa": 9104,
      "Ġpartly": 9105,
      "Ġdrinks": 9106,
      "Ġreveals": 9107,
      "Ġpale": 9108,
      "ube": 9109,
      "Ġprime": 9110,
      "Ġresemb": 9111,
      "Ġ600": 9112,
      "Ġcampus": 9113,
      "Ġthyroid": 9114,
      "Ġsizes": 9115,
      "idal": 9116,
      "athan": 9117,
      "Ġlogical": 9118,
      "ĠSamuel": 9119,
      "Ġdeeply": 9120,
      "Ġexhibition": 9121,
      "TH": 9122,
      "ĠMountain": 9123,
      "Just": 9124,
      "Please": 9125,
      "Ġtab": 9126,
      "Ġ120": 9127,
      "ĠIdent": 9128,
      "olph": 9129,
      "ĠCT": 9130,
      "Ġexciting": 9131,
      "Ġranges": 9132,
      "Ġelementary": 9133,
      "Ġwatching": 9134,
      "Ġease": 9135,
      "Ġsaving": 9136,
      "Ġwings": 9137,
      "ĠHem": 9138,
      "Ġchose": 9139,
      "Ġparameters": 9140,
      "Ġboundaries": 9141,
      "Ġmembrane": 9142,
      "Ġtom": 9143,
      "Ġpainful": 9144,
      "non": 9145,
      "Ġcarc": 9146,
      "Ġquantities": 9147,
      "Ġcontrolling": 9148,
      "Ġrestaur": 9149,
      "Ġcolonial": 9150,
      "Also": 9151,
      "Ġdimin": 9152,
      "Ġbeet": 9153,
      "ifier": 9154,
      "Ġvom": 9155,
      "Ġrobot": 9156,
      "Ġtwelve": 9157,
      "Ġlanding": 9158,
      "Ġflexible": 9159,
      "Ġpediatric": 9160,
      "Ġ95": 9161,
      "Ġvig": 9162,
      "Ġmerch": 9163,
      "ĠCast": 9164,
      "Ġdeficiency": 9165,
      "Ġoutbreak": 9166,
      "97": 9167,
      "Ġshaped": 9168,
      "Ġsediment": 9169,
      "Ġcow": 9170,
      "Ġlegit": 9171,
      "ohyd": 9172,
      "Ġphysically": 9173,
      "uan": 9174,
      "Ġlibraries": 9175,
      "Ġadopt": 9176,
      "ĠWikipedia": 9177,
      "Ġdominant": 9178,
      "iro": 9179,
      "Ġrelating": 9180,
      "Ġinvention": 9181,
      "Ġinterventions": 9182,
      "ico": 9183,
      "ĠMove": 9184,
      "enda": 9185,
      "Ġobst": 9186,
      "ĠCorpor": 9187,
      "brid": 9188,
      "Ġabilities": 9189,
      "Ġprofound": 9190,
      "Ġsoils": 9191,
      "Ġrestore": 9192,
      "Ġdistinguish": 9193,
      "Ġphilos": 9194,
      "Ġequation": 9195,
      "ĠColon": 9196,
      "holders": 9197,
      "Ġliterally": 9198,
      "ĠSmall": 9199,
      "Ġdramatically": 9200,
      "Ġmurder": 9201,
      "Ġsurveys": 9202,
      "Ġlob": 9203,
      "Ġregister": 9204,
      "ogenic": 9205,
      "ĠJim": 9206,
      "Ġcivilization": 9207,
      "Gl": 9208,
      "mentation": 9209,
      "istence": 9210,
      "Ġ44": 9211,
      "Ġinvestigate": 9212,
      "words": 9213,
      "ĠRen": 9214,
      "ĠPope": 9215,
      "Ġelections": 9216,
      "Ġcuts": 9217,
      "Ġpartnership": 9218,
      "ker": 9219,
      "Ġdocumented": 9220,
      "Ġethical": 9221,
      "text": 9222,
      "ĠGuard": 9223,
      "Ġtap": 9224,
      "Ġcomputing": 9225,
      "Tra": 9226,
      "Ġ1984": 9227,
[...]
